{
  "version": "1.0",
  "truncation": null,
  "padding": {
    "strategy": "BatchLongest",
    "direction": "Right",
    "pad_to_multiple_of": null,
    "pad_id": 0,
    "pad_type_id": 0,
    "pad_token": "<pad>"
  },
  "added_tokens": [
    {
      "id": 0,
      "content": "<pad>",
      "single_word": false,
      "lstrip": false,
      "rstrip": false,
      "normalized": false,
      "special": true
    },
    {
      "id": 1,
      "content": "<unk>",
      "single_word": false,
      "lstrip": false,
      "rstrip": false,
      "normalized": false,
      "special": true
    }
  ],
  "normalizer": null,
  "pre_tokenizer": {
    "type": "Whitespace"
  },
  "post_processor": null,
  "decoder": null,
  "model": {
    "type": "BPE",
    "dropout": null,
    "unk_token": "<unk>",
    "continuing_subword_prefix": null,
    "end_of_word_suffix": null,
    "fuse_unk": false,
    "byte_fallback": false,
    "ignore_merges": false,
    "vocab": {
      "<pad>": 0,
      "<unk>": 1,
      "!": 2,
      "\"": 3,
      "&": 4,
      "'": 5,
      "(": 6,
      ")": 7,
      ",": 8,
      "-": 9,
      ".": 10,
      "/": 11,
      "0": 12,
      "1": 13,
      "2": 14,
      "3": 15,
      "4": 16,
      "5": 17,
      "7": 18,
      "9": 19,
      ":": 20,
      "<": 21,
      ">": 22,
      "?": 23,
      "A": 24,
      "B": 25,
      "C": 26,
      "D": 27,
      "E": 28,
      "F": 29,
      "G": 30,
      "H": 31,
      "I": 32,
      "J": 33,
      "K": 34,
      "L": 35,
      "M": 36,
      "N": 37,
      "O": 38,
      "P": 39,
      "Q": 40,
      "R": 41,
      "S": 42,
      "T": 43,
      "U": 44,
      "V": 45,
      "W": 46,
      "Y": 47,
      "Z": 48,
      "a": 49,
      "b": 50,
      "c": 51,
      "d": 52,
      "e": 53,
      "f": 54,
      "g": 55,
      "h": 56,
      "i": 57,
      "j": 58,
      "k": 59,
      "l": 60,
      "m": 61,
      "n": 62,
      "o": 63,
      "p": 64,
      "q": 65,
      "r": 66,
      "s": 67,
      "t": 68,
      "u": 69,
      "v": 70,
      "w": 71,
      "x": 72,
      "y": 73,
      "z": 74,
      "Õ": 75,
      "ā": 76,
      "€": 77,
      "™": 78,
      "th": 79,
      "ou": 80,
      "in": 81,
      "an": 82,
      "er": 83,
      "on": 84,
      "at": 85,
      "you": 86,
      "re": 87,
      "the": 88,
      "ing": 89,
      "to": 90,
      "ll": 91,
      "st": 92,
      "en": 93,
      "it": 94,
      "is": 95,
      "me": 96,
      "ar": 97,
      "se": 98,
      "or": 99,
      "no": 100,
      "ve": 101,
      "le": 102,
      "as": 103,
      "of": 104,
      "he": 105,
      "and": 106,
      "be": 107,
      "go": 108,
      "ke": 109,
      "that": 110,
      "li": 111,
      "ay": 112,
      "ha": 113,
      "ere": 114,
      "gh": 115,
      "all": 116,
      "wh": 117,
      "es": 118,
      "ow": 119,
      "ch": 120,
      "out": 121,
      "al": 122,
      "ld": 123,
      "ed": 124,
      "ght": 125,
      "ic": 126,
      "oo": 127,
      "we": 128,
      "my": 129,
      "ri": 130,
      "so": 131,
      "ut": 132,
      "wi": 133,
      "ac": 134,
      "was": 135,
      "ust": 136,
      "now": 137,
      "co": 138,
      "ea": 139,
      "for": 140,
      "Oh": 141,
      "id": 142,
      "do": 143,
      "ab": 144,
      "et": 145,
      "ir": 146,
      "just": 147,
      "No": 148,
      "nd": 149,
      "ro": 150,
      "ent": 151,
      "ell": 152,
      "have": 153,
      "Wh": 154,
      "ly": 155,
      "with": 156,
      "You": 157,
      "am": 158,
      "ver": 159,
      "ould": 160,
      "don": 161,
      "na": 162,
      "are": 163,
      "od": 164,
      "your": 165,
      "up": 166,
      "this": 167,
      "one": 168,
      "Th": 169,
      "know": 170,
      "lo": 171,
      "ant": 172,
      "eah": 173,
      "if": 174,
      "mo": 175,
      "ry": 176,
      "us": 177,
      "not": 178,
      "can": 179,
      "un": 180,
      "ca": 181,
      "ne": 182,
      "like": 183,
      "ally": 184,
      "ion": 185,
      "ard": 186,
      "ad": 187,
      "about": 188,
      "It": 189,
      "Yeah": 190,
      "use": 191,
      "thing": 192,
      "de": 193,
      "her": 194,
      "su": 195,
      "ake": 196,
      "ce": 197,
      "there": 198,
      "our": 199,
      "Well": 200,
      "fe": 201,
      "ight": 202,
      "op": 203,
      "she": 204,
      "ti": 205,
      "thin": 206,
      "what": 207,
      "right": 208,
      "some": 209,
      "..": 210,
      "gu": 211,
      "ook": 212,
      "think": 213,
      "And": 214,
      "get": 215,
      "how": 216,
      "ind": 217,
      "art": 218,
      "What": 219,
      "ag": 220,
      "ose": 221,
      "end": 222,
      "got": 223,
      "but": 224,
      "kay": 225,
      "man": 226,
      "alk": 227,
      "That": 228,
      "The": 229,
      "here": 230,
      "per": 231,
      "sa": 232,
      "tu": 233,
      "see": 234,
      "cause": 235,
      "con": 236,
      "el": 237,
      "ter": 238,
      "wor": 239,
      "want": 240,
      "ther": 241,
      "good": 242,
      "hi": 243,
      "ment": 244,
      "ra": 245,
      "te": 246,
      "talk": 247,
      "would": 248,
      "ice": 249,
      "ack": 250,
      "He": 251,
      "gon": 252,
      "lf": 253,
      "pe": 254,
      "pro": 255,
      "ss": 256,
      "mean": 257,
      "gonna": 258,
      "ast": 259,
      "bi": 260,
      "ck": 261,
      "lit": 262,
      "look": 263,
      "sor": 264,
      "way": 265,
      "any": 266,
      "really": 267,
      "too": 268,
      "going": 269,
      "own": 270,
      "com": 271,
      "love": 272,
      "time": 273,
      "Le": 274,
      "Okay": 275,
      "bo": 276,
      "did": 277,
      "ie": 278,
      "po": 279,
      "tle": 280,
      "um": 281,
      "ate": 282,
      "they": 283,
      "We": 284,
      "ge": 285,
      "ho": 286,
      "ill": 287,
      "qu": 288,
      "ur": 289,
      "ven": 290,
      "ound": 291,
      "ank": 292,
      "off": 293,
      "riend": 294,
      "rom": 295,
      "back": 296,
      "che": 297,
      "could": 298,
      "ex": 299,
      "from": 300,
      "gi": 301,
      "pl": 302,
      "pre": 303,
      "sto": 304,
      "say": 305,
      "wo": 306,
      "ous": 307,
      "onard": 308,
      "because": 309,
      "who": 310,
      "come": 311,
      "little": 312,
      "sorry": 313,
      "Leonard": 314,
      "So": 315,
      "ak": 316,
      "ep": 317,
      "ever": 318,
      "gre": 319,
      "gir": 320,
      "make": 321,
      "pp": 322,
      "ru": 323,
      "sh": 324,
      "sp": 325,
      "were": 326,
      "ked": 327,
      "had": 328,
      "new": 329,
      "Rose": 330,
      "bod": 331,
      "down": 332,
      "ear": 333,
      "mu": 334,
      "sc": 335,
      "ine": 336,
      "ish": 337,
      "orn": 338,
      "when": 339,
      "will": 340,
      "prob": 341,
      "But": 342,
      "Ch": 343,
      "il": 344,
      "lon": 345,
      "night": 346,
      "uh": 347,
      "ul": 348,
      "ought": 349,
      "them": 350,
      "why": 351,
      "ick": 352,
      "ace": 353,
      "Why": 354,
      "guy": 355,
      "him": 356,
      "body": 357,
      "All": 358,
      "bu": 359,
      "day": 360,
      "find": 361,
      "ga": 362,
      "jo": 363,
      "min": 364,
      "might": 365,
      "ny": 366,
      "oh": 367,
      "put": 368,
      "sit": 369,
      "ts": 370,
      "tt": 371,
      "tell": 372,
      "ving": 373,
      "wa": 374,
      "ation": 375,
      "stu": 376,
      "med": 377,
      "ood": 378,
      "well": 379,
      "more": 380,
      "sure": 381,
      "said": 382,
      "much": 383,
      "How": 384,
      "ct": 385,
      "des": 386,
      "friend": 387,
      "his": 388,
      "ile": 389,
      "la": 390,
      "may": 391,
      "take": 392,
      "ough": 393,
      "atch": 394,
      "start": 395,
      "itch": 396,
      "lea": 397,
      "been": 398,
      "ess": 399,
      "does": 400,
      "something": 401,
      "...": 402,
      "great": 403,
      "should": 404,
      "long": 405,
      ".\"": 406,
      "Be": 407,
      "Jo": 408,
      "Yes": 409,
      "ain": 410,
      "by": 411,
      "cou": 412,
      "car": 413,
      "cour": 414,
      "ey": 415,
      "est": 416,
      "fi": 417,
      "fun": 418,
      "gl": 419,
      "has": 420,
      "ist": 421,
      "lan": 422,
      "ner": 423,
      "part": 424,
      "ring": 425,
      "son": 426,
      "und": 427,
      "thought": 428,
      "ence": 429,
      "ite": 430,
      "its": 431,
      "lie": 432,
      "act": 433,
      "very": 434,
      "rying": 435,
      "Hey": 436,
      "big": 437,
      "Do": 438,
      "In": 439,
      "May": 440,
      "She": 441,
      "Uh": 442,
      "cl": 443,
      "cr": 444,
      "call": 445,
      "ee": 446,
      "fo": 447,
      "fir": 448,
      "hand": 449,
      "ia": 450,
      "ious": 451,
      "mon": 452,
      "ol": 453,
      "other": 454,
      "por": 455,
      "sw": 456,
      "ting": 457,
      "tra": 458,
      "wan": 459,
      "won": 460,
      "yeah": 461,
      "year": 462,
      "ers": 463,
      "ert": 464,
      "then": 465,
      "their": 466,
      "still": 467,
      "around": 468,
      "self": 469,
      "ash": 470,
      "offe": 471,
      "being": 472,
      "keep": 473,
      "live": 474,
      "alway": 475,
      "oom": 476,
      "wear": 477,
      "able": 478,
      "never": 479,
      "ople": 480,
      "work": 481,
      "people": 482,
      "orning": 483,
      "minut": 484,
      "tty": 485,
      "wait": 486,
      "Because": 487,
      "course": 488,
      "Maybe": 489,
      "wanna": 490,
      "offee": 491,
      "always": 492,
      "--": 493,
      "Ber": 494,
      "If": 495,
      "Noo": 496,
      "Of": 497,
      "On": 498,
      "Re": 499,
      "Ro": 500,
      "ago": 501,
      "ach": 502,
      "cle": 503,
      "coffee": 504,
      "din": 505,
      "der": 506,
      "det": 507,
      "ek": 508,
      "gr": 509,
      "hour": 510,
      "ig": 511,
      "ies": 512,
      "kind": 513,
      "old": 514,
      "over": 515,
      "okay": 516,
      "ps": 517,
      "pic": 518,
      "ron": 519,
      "room": 520,
      "sen": 521,
      "sli": 522,
      "tri": 523,
      "tter": 524,
      "two": 525,
      "trying": 526,
      "Õs": 527,
      "those": 528,
      "only": 529,
      "red": 530,
      "res": 531,
      "these": 532,
      "stand": 533,
      "enjo": 534,
      "sed": 535,
      "lem": 536,
      "ask": 537,
      "ass": 538,
      "where": 539,
      "ide": 540,
      "ably": 541,
      "ird": 542,
      "Not": 543,
      "When": 544,
      "nadet": 545,
      "There": 546,
      "Thank": 547,
      "most": 548,
      "need": 549,
      "getting": 550,
      "word": 551,
      "lfriend": 552,
      "didn": 553,
      "pretty": 554,
      "aking": 555,
      "girl": 556,
      "girlfriend": 557,
      "ppen": 558,
      "sci": 559,
      "problem": 560,
      "probably": 561,
      "game": 562,
      "under": 563,
      "first": 564,
      "Bernadet": 565,
      "enjoy": 566,
      "Bernadette": 567,
      "?!": 568,
      "Ah": 569,
      "Blan": 570,
      "Ha": 571,
      "Jan": 572,
      "Just": 573,
      "Lo": 574,
      "Pr": 575,
      "aper": 576,
      "ba": 577,
      "ber": 578,
      "bre": 579,
      "ble": 580,
      "ced": 581,
      "di": 582,
      "ding": 583,
      "dis": 584,
      "ew": 585,
      "ele": 586,
      "even": 587,
      "fa": 588,
      "ff": 589,
      "fl": 590,
      "ful": 591,
      "ild": 592,
      "ler": 593,
      "men": 594,
      "morning": 595,
      "om": 596,
      "pr": 597,
      "ple": 598,
      "rn": 599,
      "sy": 600,
      "sup": 601,
      "show": 602,
      "side": 603,
      "tr": 604,
      "ure": 605,
      "ward": 606,
      "yes": 607,
      "thr": 608,
      "ths": 609,
      "than": 610,
      "third": 611,
      "ouse": 612,
      "inv": 613,
      "inst": 614,
      "ane": 615,
      "ang": 616,
      "once": 617,
      "ating": 618,
      "ated": 619,
      "told": 620,
      "enough": 621,
      "arn": 622,
      "ses": 623,
      "nothing": 624,
      "leg": 625,
      "les": 626,
      "hel": 627,
      "hear": 628,
      "key": 629,
      "life": 630,
      "happen": 631,
      "ool": 632,
      "ried": 633,
      "actu": 634,
      "idea": 635,
      "lot": 636,
      "feel": 637,
      "open": 638,
      "someone": 639,
      "turn": 640,
      "else": 641,
      "give": 642,
      "story": 643,
      "woman": 644,
      "every": 645,
      "lieve": 646,
      "clu": 647,
      "fore": 648,
      "Really": 649,
      "Ross": 650,
      "Janice": 651,
      "!!": 652,
      "</": 653,
      "Al": 654,
      "Can": 655,
      "Ex": 656,
      "Is": 657,
      "My": 658,
      "Mar": 659,
      "Ra": 660,
      "St": 661,
      "Wow": 662,
      "aw": 663,
      "br": 664,
      "book": 665,
      "ci": 666,
      "cre": 667,
      "cas": 668,
      "cut": 669,
      "dy": 670,
      "dum": 671,
      "date": 672,
      "ei": 673,
      "em": 674,
      "ft": 675,
      "fic": 676,
      "fast": 677,
      "food": 678,
      "gle": 679,
      "hop": 680,
      "huh": 681,
      "house": 682,
      "im": 683,
      "ive": 684,
      "ily": 685,
      "king": 686,
      "ling": 687,
      "last": 688,
      "ms": 689,
      "mis": 690,
      "mar": 691,
      "mad": 692,
      "mag": 693,
      "pu": 694,
      "pen": 695,
      "pant": 696,
      "pie": 697,
      "pick": 698,
      "paper": 699,
      "rs": 700,
      "ser": 701,
      "sing": 702,
      "sound": 703,
      "ten": 704,
      "tru": 705,
      "uck": 706,
      "vi": 707,
      "went": 708,
      "watch": 709,
      "thre": 710,
      "thank": 711,
      "into": 712,
      "init": 713,
      "ance": 714,
      "ery": 715,
      "stic": 716,
      "ary": 717,
      "nobody": 718,
      "hee": 719,
      "beer": 720,
      "better": 721,
      "believe": 722,
      "lic": 723,
      "list": 724,
      "ham": 725,
      "half": 726,
      "while": 727,
      "cho": 728,
      "char": 729,
      "ical": 730,
      "week": 731,
      "amp": 732,
      "This": 733,
      "moment": 734,
      "came": 735,
      "things": 736,
      "deal": 737,
      "few": 738,
      "guess": 739,
      "thinking": 740,
      "age": 741,
      "again": 742,
      "person": 743,
      "world": 744,
      "talking": 745,
      "cks": 746,
      "box": 747,
      "poin": 748,
      "post": 749,
      "exc": 750,
      "stop": 751,
      "space": 752,
      "news": 753,
      "guys": 754,
      "ations": 755,
      "stuff": 756,
      "starting": 757,
      "doesn": 758,
      "Joe": 759,
      "Joey": 760,
      "five": 761,
      "cramp": 762,
      "iously": 763,
      "port": 764,
      "wonder": 765,
      "years": 766,
      "minute": 767,
      "Nooo": 768,
      "pictu": 769,
      "science": 770,
      "Blanche": 771,
      "actually": 772,
      "either": 773,
      "pants": 774,
      ",\"": 775,
      "12": 776,
      "An": 777,
      "As": 778,
      "Are": 779,
      "Amy": 780,
      "Ca": 781,
      "Car": 782,
      "Dr": 783,
      "God": 784,
      "Jew": 785,
      "Kind": 786,
      "Look": 787,
      "Mom": 788,
      "Mrs": 789,
      "Ooh": 790,
      "Phee": 791,
      "Rac": 792,
      "Sp": 793,
      "See": 794,
      "Wol": 795,
      "ap": 796,
      "ali": 797,
      "bl": 798,
      "bs": 799,
      "bit": 800,
      "band": 801,
      "bal": 802,
      "bir": 803,
      "bus": 804,
      "bun": 805,
      "bad": 806,
      "bra": 807,
      "bur": 808,
      "bitch": 809,
      "cer": 810,
      "cent": 811,
      "care": 812,
      "corn": 813,
      "cool": 814,
      "dr": 815,
      "den": 816,
      "dea": 817,
      "fin": 818,
      "fer": 819,
      "fre": 820,
      "fam": 821,
      "flo": 822,
      "fact": 823,
      "gn": 824,
      "gy": 825,
      "gar": 826,
      "gone": 827,
      "gge": 828,
      "hy": 829,
      "hus": 830,
      "hind": 831,
      "hur": 832,
      "hang": 833,
      "iment": 834,
      "kid": 835,
      "kick": 836,
      "ls": 837,
      "lt": 838,
      "las": 839,
      "late": 840,
      "ma": 841,
      "mb": 842,
      "nt": 843,
      "ned": 844,
      "nts": 845,
      "ph": 846,
      "pend": 847,
      "ris": 848,
      "rup": 849,
      "sar": 850,
      "smo": 851,
      "sad": 852,
      "sist": 853,
      "ty": 854,
      "tou": 855,
      "tic": 856,
      "tion": 857,
      "tast": 858,
      "table": 859,
      "ues": 860,
      "vy": 861,
      "van": 862,
      "vent": 863,
      "walk": 864,
      "ouble": 865,
      "inter": 866,
      "inside": 867,
      "ater": 868,
      "atter": 869,
      "reat": 870,
      "real": 871,
      "reet": 872,
      "read": 873,
      "stru": 874,
      "enny": 875,
      "ity": 876,
      "itz": 877,
      "iting": 878,
      "meet": 879,
      "meant": 880,
      "set": 881,
      "sex": 882,
      "secon": 883,
      "ord": 884,
      "let": 885,
      "left": 886,
      "ason": 887,
      "asked": 888,
      "ofes": 889,
      "hea": 890,
      "hey": 891,
      "heard": 892,
      "head": 893,
      "andler": 894,
      "bed": 895,
      "before": 896,
      "behind": 897,
      "ket": 898,
      "liar": 899,
      "light": 900,
      "living": 901,
      "hair": 902,
      "ered": 903,
      "owitz": 904,
      "alone": 905,
      "ldon": 906,
      "rib": 907,
      "rist": 908,
      "wasn": 909,
      "ead": 910,
      "each": 911,
      "fort": 912,
      "doing": 913,
      "entist": 914,
      "without": 915,
      "Your": 916,
      "naked": 917,
      "yourself": 918,
      "mom": 919,
      "ush": 920,
      "unk": 921,
      "used": 922,
      "dev": 923,
      "depend": 924,
      "sur": 925,
      "such": 926,
      "sugge": 927,
      "tive": 928,
      "gets": 929,
      "many": 930,
      "periment": 931,
      "same": 932,
      "cony": 933,
      "wants": 934,
      "pee": 935,
      "ssi": 936,
      "ssing": 937,
      "means": 938,
      "looking": 939,
      "anything": 940,
      "anymore": 941,
      "took": 942,
      "comm": 943,
      "comp": 944,
      "coming": 945,
      "boy": 946,
      "possi": 947,
      "umm": 948,
      "umber": 949,
      "home": 950,
      "quest": 951,
      "experiment": 952,
      "given": 953,
      "plan": 954,
      "play": 955,
      "pres": 956,
      "store": 957,
      "says": 958,
      "saying": 959,
      "whole": 960,
      "Some": 961,
      "Chandler": 962,
      "build": 963,
      "sitive": 964,
      "Howard": 965,
      "desert": 966,
      "friends": 967,
      "atching": 968,
      "lease": 969,
      "leave": 970,
      "couch": 971,
      "couple": 972,
      "funny": 973,
      "party": 974,
      "Does": 975,
      "Sheldon": 976,
      "called": 977,
      "months": 978,
      "monkey": 979,
      "ertain": 980,
      "minutes": 981,
      "dinner": 982,
      "sense": 983,
      "words": 984,
      "understand": 985,
      "break": 986,
      "supp": 987,
      "throw": 988,
      "instead": 989,
      "turns": 990,
      "Exc": 991,
      "Raj": 992,
      "cial": 993,
      "hope": 994,
      "married": 995,
      "penis": 996,
      "ucky": 997,
      "three": 998,
      "initi": 999,
      "pictures": 1000,
      "Pheebs": 1001,
      "Rachel": 1002,
      "Wolowitz": 1003,
      "balcony": 1004,
      "birth": 1005,
      "husband": 1006,
      "sister": 1007,
      "second": 1008,
      "ofessor": 1009,
      "suggest": 1010,
      "question": 1011,
      "\".": 1012,
      "'.": 1013,
      "?\"": 1014,
      "Ar": 1015,
      "Any": 1016,
      "Bon": 1017,
      "Co": 1018,
      "Did": 1019,
      "Del": 1020,
      "Em": 1021,
      "Fr": 1022,
      "For": 1023,
      "Ge": 1024,
      "Go": 1025,
      "Good": 1026,
      "Great": 1027,
      "Hi": 1028,
      "His": 1029,
      "Here": 1030,
      "Hell": 1031,
      "Ju": 1032,
      "Krist": 1033,
      "Li": 1034,
      "Let": 1035,
      "Lane": 1036,
      "Lord": 1037,
      "Ma": 1038,
      "Me": 1039,
      "Morning": 1040,
      "New": 1041,
      "Ob": 1042,
      "Ox": 1043,
      "Pl": 1044,
      "Pho": 1045,
      "Penny": 1046,
      "Red": 1047,
      "Right": 1048,
      "Sa": 1049,
      "Ser": 1050,
      "Sar": 1051,
      "Stu": 1052,
      "Sound": 1053,
      "Sure": 1054,
      "To": 1055,
      "Tod": 1056,
      "Tues": 1057,
      "Trib": 1058,
      "Very": 1059,
      "af": 1060,
      "ah": 1061,
      "ave": 1062,
      "aut": 1063,
      "aver": 1064,
      "apart": 1065,
      "bro": 1066,
      "bag": 1067,
      "bought": 1068,
      "cat": 1069,
      "cen": 1070,
      "cha": 1071,
      "cid": 1072,
      "cam": 1073,
      "clo": 1074,
      "cus": 1075,
      "ctu": 1076,
      "cous": 1077,
      "cked": 1078,
      "cess": 1079,
      "cket": 1080,
      "ctive": 1081,
      "da": 1082,
      "du": 1083,
      "dle": 1084,
      "dir": 1085,
      "dro": 1086,
      "dare": 1087,
      "dif": 1088,
      "die": 1089,
      "dres": 1090,
      "dance": 1091,
      "eg": 1092,
      "eat": 1093,
      "ebe": 1094,
      "eel": 1095,
      "ect": 1096,
      "far": 1097,
      "fall": 1098,
      "fight": 1099,
      "fie": 1100,
      "fur": 1101,
      "found": 1102,
      "fla": 1103,
      "fash": 1104,
      "fron": 1105,
      "gs": 1106,
      "ger": 1107,
      "gen": 1108,
      "gif": 1109,
      "ggl": 1110,
      "hid": 1111,
      "hun": 1112,
      "io": 1113,
      "ix": 1114,
      "iz": 1115,
      "ire": 1116,
      "ich": 1117,
      "iate": 1118,
      "ipp": 1119,
      "kitch": 1120,
      "kward": 1121,
      "lar": 1122,
      "land": 1123,
      "lut": 1124,
      "lad": 1125,
      "line": 1126,
      "mm": 1127,
      "mou": 1128,
      "ming": 1129,
      "mor": 1130,
      "mart": 1131,
      "mach": 1132,
      "making": 1133,
      "ning": 1134,
      "net": 1135,
      "nice": 1136,
      "number": 1137,
      "nipp": 1138,
      "ok": 1139,
      "olo": 1140,
      "pin": 1141,
      "ping": 1142,
      "pri": 1143,
      "pet": 1144,
      "pare": 1145,
      "pop": 1146,
      "pill": 1147,
      "pite": 1148,
      "please": 1149,
      "rit": 1150,
      "sl": 1151,
      "sis": 1152,
      "sch": 1153,
      "swe": 1154,
      "swi": 1155,
      "snow": 1156,
      "send": 1157,
      "ta": 1158,
      "tit": 1159,
      "taking": 1160,
      "ually": 1161,
      "uce": 1162,
      "vor": 1163,
      "vid": 1164,
      "vie": 1165,
      "vous": 1166,
      "viously": 1167,
      "wn": 1168,
      "wer": 1169,
      "wast": 1170,
      "xt": 1171,
      "ya": 1172,
      "ying": 1173,
      "zz": 1174,
      "zer": 1175,
      "zing": 1176,
      "Õt": 1177,
      "though": 1178,
      "oup": 1179,
      "inal": 1180,
      "inclu": 1181,
      "incess": 1182,
      "ani": 1183,
      "ange": 1184,
      "ercial": 1185,
      "ons": 1186,
      "atic": 1187,
      "rese": 1188,
      "resu": 1189,
      "regu": 1190,
      "reason": 1191,
      "theor": 1192,
      "ings": 1193,
      "toile": 1194,
      "str": 1195,
      "ster": 1196,
      "star": 1197,
      "stay": 1198,
      "street": 1199,
      "static": 1200,
      "ited": 1201,
      "ition": 1202,
      "itÕs": 1203,
      "isn": 1204,
      "iss": 1205,
      "mes": 1206,
      "meat": 1207,
      "arch": 1208,
      "seen": 1209,
      "seven": 1210,
      "orge": 1211,
      "orig": 1212,
      "ved": 1213,
      "vement": 1214,
      "led": 1215,
      "letter": 1216,
      "learn": 1217,
      "asy": 1218,
      "best": 1219,
      "beam": 1220,
      "become": 1221,
      "god": 1222,
      "goes": 1223,
      "thatÕs": 1224,
      "haven": 1225,
      "having": 1226,
      "allow": 1227,
      "whose": 1228,
      "ower": 1229,
      "chick": 1230,
      "almost": 1231,
      "ghtly": 1232,
      "ica": 1233,
      "myself": 1234,
      "solut": 1235,
      "acter": 1236,
      "accou": 1237,
      "accid": 1238,
      "cop": 1239,
      "cost": 1240,
      "coca": 1241,
      "costu": 1242,
      "colate": 1243,
      "ford": 1244,
      "forgetting": 1245,
      "forward": 1246,
      "dog": 1247,
      "abl": 1248,
      "aby": 1249,
      "ety": 1250,
      "irg": 1251,
      "irt": 1252,
      "Nope": 1253,
      "entire": 1254,
      "Where": 1255,
      "donÕt": 1256,
      "name": 1257,
      "named": 1258,
      "odel": 1259,
      "upset": 1260,
      "uppet": 1261,
      "ante": 1262,
      "mother": 1263,
      "moho": 1264,
      "user": 1265,
      "unt": 1266,
      "unti": 1267,
      "uncle": 1268,
      "cake": 1269,
      "castic": 1270,
      "next": 1271,
      "ardly": 1272,
      "dest": 1273,
      "depres": 1274,
      "sub": 1275,
      "fect": 1276,
      "opport": 1277,
      "somebody": 1278,
      "gue": 1279,
      "guard": 1280,
      "gotta": 1281,
      "ThatÕs": 1282,
      "save": 1283,
      "seemed": 1284,
      "conte": 1285,
      "hill": 1286,
      "high": 1287,
      "ments": 1288,
      "testic": 1289,
      "promis": 1290,
      "bill": 1291,
      "bilit": 1292,
      "biolo": 1293,
      "biani": 1294,
      "looks": 1295,
      "anyway": 1296,
      "comic": 1297,
      "comple": 1298,
      "comfort": 1299,
      "loved": 1300,
      "times": 1301,
      "bot": 1302,
      "ump": 1303,
      "hold": 1304,
      "quite": 1305,
      "office": 1306,
      "chew": 1307,
      "check": 1308,
      "extra": 1309,
      "giving": 1310,
      "place": 1311,
      "pregn": 1312,
      "rub": 1313,
      "shirt": 1314,
      "spent": 1315,
      "spell": 1316,
      "earring": 1317,
      "Chan": 1318,
      "iling": 1319,
      "days": 1320,
      "finds": 1321,
      "gave": 1322,
      "study": 1323,
      "mediate": 1324,
      "cted": 1325,
      "despite": 1326,
      "laund": 1327,
      "maybe": 1328,
      "takes": 1329,
      "leased": 1330,
      "longer": 1331,
      "eyes": 1332,
      "establ": 1333,
      "figu": 1334,
      "glass": 1335,
      "lane": 1336,
      "nervous": 1337,
      "thoughtful": 1338,
      "actly": 1339,
      "focus": 1340,
      "hands": 1341,
      "swer": 1342,
      "switch": 1343,
      "trap": 1344,
      "wears": 1345,
      "wearing": 1346,
      "works": 1347,
      "clean": 1348,
      "clear": 1349,
      "dinfast": 1350,
      "grad": 1351,
      "group": 1352,
      "hours": 1353,
      "ign": 1354,
      "sensitive": 1355,
      "slightly": 1356,
      "trip": 1357,
      "girls": 1358,
      "scientist": 1359,
      "enjoyed": 1360,
      "Have": 1361,
      "Love": 1362,
      "Professor": 1363,
      "Princess": 1364,
      "bath": 1365,
      "died": 1366,
      "eless": 1367,
      "fair": 1368,
      "flat": 1369,
      "syrup": 1370,
      "trouble": 1371,
      "through": 1372,
      "invol": 1373,
      "help": 1374,
      "happens": 1375,
      "happened": 1376,
      "everyone": 1377,
      "awkward": 1378,
      "casmoho": 1379,
      "dumbed": 1380,
      "ficul": 1381,
      "miss": 1382,
      "made": 1383,
      "magical": 1384,
      "puzz": 1385,
      "serious": 1386,
      "series": 1387,
      "sounds": 1388,
      "trucks": 1389,
      "thanks": 1390,
      "hamp": 1391,
      "choice": 1392,
      "character": 1393,
      "point": 1394,
      "excited": 1395,
      "wonderful": 1396,
      "Cause": 1397,
      "Carol": 1398,
      "Jewish": 1399,
      "appro": 1400,
      "bunch": 1401,
      "brain": 1402,
      "bitchin": 1403,
      "corner": 1404,
      "drank": 1405,
      "ferring": 1406,
      "freaking": 1407,
      "hurry": 1408,
      "kids": 1409,
      "laser": 1410,
      "phone": 1411,
      "risk": 1412,
      "sarcasmoho": 1413,
      "smoking": 1414,
      "vanced": 1415,
      "attern": 1416,
      "structive": 1417,
      "heavy": 1418,
      "lights": 1419,
      "device": 1420,
      "dependent": 1421,
      "commercial": 1422,
      "possibilit": 1423,
      "planning": 1424,
      "ertainly": 1425,
      "breakfast": 1426,
      "suppose": 1427,
      "Excuse": 1428,
      "birthday": 1429,
      "Emily": 1430,
      "George": 1431,
      "Hello": 1432,
      "Krista": 1433,
      "Like": 1434,
      "Obviously": 1435,
      "Oxford": 1436,
      "Phoebe": 1437,
      "Seriously": 1438,
      "Stuart": 1439,
      "Sounds": 1440,
      "Today": 1441,
      "Tuesday": 1442,
      "Tribbiani": 1443,
      "bags": 1444,
      "cousin": 1445,
      "difficul": 1446,
      "falling": 1447,
      "field": 1448,
      "fashion": 1449,
      "front": 1450,
      "gift": 1451,
      "hidden": 1452,
      "kitchen": 1453,
      "mouth": 1454,
      "morr": 1455,
      "nipple": 1456,
      "parents": 1457,
      "school": 1458,
      "weren": 1459,
      "research": 1460,
      "regular": 1461,
      "original": 1462,
      "allowed": 1463,
      "solution": 1464,
      "accident": 1465,
      "cocaine": 1466,
      "costumes": 1467,
      "until": 1468,
      "depressed": 1469,
      "opportun": 1470,
      "contest": 1471,
      "biology": 1472,
      "pregnant": 1473,
      "laundry": 1474,
      "scientists": 1475,
      "puzzle": 1476,
      "sarcasmoholic": 1477,
      "possibility": 1478,
      "!\"": 1479,
      "!?": 1480,
      "\"\"": 1481,
      "\"?": 1482,
      "\"--": 1483,
      "11": 1484,
      "14": 1485,
      "17": 1486,
      "19": 1487,
      "112": 1488,
      "20": 1489,
      "25": 1490,
      "29": 1491,
      "32": 1492,
      "40": 1493,
      "75": 1494,
      ">\"": 1495,
      "AN": 1496,
      "AS": 1497,
      "Ab": 1498,
      "Ad": 1499,
      "At": 1500,
      "Avi": 1501,
      "Ama": 1502,
      "Actu": 1503,
      "BF": 1504,
      "Bo": 1505,
      "Bat": 1506,
      "Bing": 1507,
      "Ben": 1508,
      "Bar": 1509,
      "Bay": 1510,
      "Bak": 1511,
      "Brit": 1512,
      "Baby": 1513,
      "CD": 1514,
      "Cr": 1515,
      "Con": 1516,
      "Cha": 1517,
      "Cake": 1518,
      "Cra": 1519,
      "Cho": 1520,
      "Cwa": 1521,
      "Cla": 1522,
      "Coffee": 1523,
      "Cold": 1524,
      "Cover": 1525,
      "Chee": 1526,
      "Certainly": 1527,
      "DC": 1528,
      "De": 1529,
      "Dor": 1530,
      "Dic": 1531,
      "Dam": 1532,
      "Dun": 1533,
      "Dep": 1534,
      "Dear": 1535,
      "Dee": 1536,
      "Darn": 1537,
      "Denny": 1538,
      "Dave": 1539,
      "Dump": 1540,
      "DAN": 1541,
      "ER": 1542,
      "En": 1543,
      "Eve": 1544,
      "Ele": 1545,
      "End": 1546,
      "Equ": 1547,
      "Even": 1548,
      "Einst": 1549,
      "Fy": 1550,
      "Fin": 1551,
      "Fac": 1552,
      "Fir": 1553,
      "Gr": 1554,
      "Gis": 1555,
      "Gal": 1556,
      "Gell": 1557,
      "Gee": 1558,
      "Gable": 1559,
      "Gris": 1560,
      "GER": 1561,
      "Hou": 1562,
      "Hof": 1563,
      "Hes": 1564,
      "Had": 1565,
      "Hop": 1566,
      "Horn": 1567,
      "Huh": 1568,
      "Hul": 1569,
      "Hold": 1570,
      "Hild": 1571,
      "Hmm": 1572,
      "Hardly": 1573,
      "ID": 1574,
      "Ind": 1575,
      "Iver": 1576,
      "Imag": 1577,
      "Ja": 1578,
      "Jer": 1579,
      "Jose": 1580,
      "Jack": 1581,
      "Joh": 1582,
      "King": 1583,
      "Koo": 1584,
      "Lea": 1585,
      "Lake": 1586,
      "List": 1587,
      "Lucky": 1588,
      "Mon": 1589,
      "Mill": 1590,
      "Miss": 1591,
      "Muppet": 1592,
      "NO": 1593,
      "Nu": 1594,
      "Now": 1595,
      "Ned": 1596,
      "Nice": 1597,
      "Nex": 1598,
      "Narn": 1599,
      "Number": 1600,
      "NAS": 1601,
      "Oc": 1602,
      "Ok": 1603,
      "Op": 1604,
      "Ow": 1605,
      "One": 1606,
      "Oop": 1607,
      "Our": 1608,
      "Ph": 1609,
      "Pan": 1610,
      "Pis": 1611,
      "Pal": 1612,
      "Pri": 1613,
      "Pro": 1614,
      "Pop": 1615,
      "Paper": 1616,
      "Please": 1617,
      "Power": 1618,
      "Phill": 1619,
      "Pleased": 1620,
      "Qu": 1621,
      "Ren": 1622,
      "Ras": 1623,
      "Res": 1624,
      "Sy": 1625,
      "Sin": 1626,
      "Son": 1627,
      "Sto": 1628,
      "Say": 1629,
      "Swe": 1630,
      "Sco": 1631,
      "Sell": 1632,
      "Sup": 1633,
      "Sad": 1634,
      "Sop": 1635,
      "Show": 1636,
      "Ste": 1637,
      "Squ": 1638,
      "Stra": 1639,
      "Smart": 1640,
      "Ta": 1641,
      "Tr": 1642,
      "Tell": 1643,
      "Take": 1644,
      "Took": 1645,
      "Tur": 1646,
      "Twent": 1647,
      "Us": 1648,
      "Umm": 1649,
      "Van": 1650,
      "Veg": 1651,
      "Virg": 1652,
      "Wi": 1653,
      "Whe": 1654,
      "Were": 1655,
      "Wal": 1656,
      "Would": 1657,
      "Wil": 1658,
      "Water": 1659,
      "Watching": 1660,
      "Year": 1661,
      "Zur": 1662,
      "au": 1663,
      "ase": 1664,
      "air": 1665,
      "ather": 1666,
      "away": 1667,
      "app": 1668,
      "ail": 1669,
      "alive": 1670,
      "aths": 1671,
      "azing": 1672,
      "aiss": 1673,
      "aunt": 1674,
      "bon": 1675,
      "bing": 1676,
      "ben": 1677,
      "bar": 1678,
      "bse": 1679,
      "bor": 1680,
      "ball": 1681,
      "bow": 1682,
      "boo": 1683,
      "bone": 1684,
      "blo": 1685,
      "bright": 1686,
      "bum": 1687,
      "bank": 1688,
      "blan": 1689,
      "bert": 1690,
      "broom": 1691,
      "bble": 1692,
      "barn": 1693,
      "bage": 1694,
      "bster": 1695,
      "baby": 1696,
      "cy": 1697,
      "cin": 1698,
      "cli": 1699,
      "ces": 1700,
      "cow": 1701,
      "cch": 1702,
      "cac": 1703,
      "cdo": 1704,
      "cro": 1705,
      "cell": 1706,
      "cup": 1707,
      "card": 1708,
      "cra": 1709,
      "catch": 1710,
      "crying": 1711,
      "cried": 1712,
      "clot": 1713,
      "clic": 1714,
      "catching": 1715,
      "champ": 1716,
      "certainly": 1717,
      "dth": 1718,
      "dic": 1719,
      "doo": 1720,
      "dri": 1721,
      "dut": 1722,
      "dust": 1723,
      "dra": 1724,
      "dge": 1725,
      "dur": 1726,
      "dash": 1727,
      "dding": 1728,
      "dating": 1729,
      "dling": 1730,
      "double": 1731,
      "dentist": 1732,
      "dition": 1733,
      "ef": 1734,
      "ein": 1735,
      "een": 1736,
      "ese": 1737,
      "eal": 1738,
      "emo": 1739,
      "econ": 1740,
      "equ": 1741,
      "eating": 1742,
      "event": 1743,
      "evid": 1744,
      "easy": 1745,
      "eBay": 1746,
      "fu": 1747,
      "fon": 1748,
      "fat": 1749,
      "fri": 1750,
      "fut": 1751,
      "fac": 1752,
      "fid": 1753,
      "fly": 1754,
      "fant": 1755,
      "fus": 1756,
      "fice": 1757,
      "fine": 1758,
      "face": 1759,
      "fts": 1760,
      "fence": 1761,
      "fused": 1762,
      "gg": 1763,
      "gor": 1764,
      "gay": 1765,
      "gly": 1766,
      "gry": 1767,
      "gun": 1768,
      "gard": 1769,
      "gel": 1770,
      "gra": 1771,
      "ggle": 1772,
      "gery": 1773,
      "hl": 1774,
      "hr": 1775,
      "hu": 1776,
      "hin": 1777,
      "hay": 1778,
      "hoo": 1779,
      "hook": 1780,
      "hood": 1781,
      "hits": 1782,
      "hardly": 1783,
      "ii": 1784,
      "iv": 1785,
      "ith": 1786,
      "ian": 1787,
      "ito": 1788,
      "ime": 1789,
      "iver": 1790,
      "imo": 1791,
      "ius": 1792,
      "ipe": 1793,
      "ires": 1794,
      "iliar": 1795,
      "iety": 1796,
      "jon": 1797,
      "junk": 1798,
      "ject": 1799,
      "jump": 1800,
      "jail": 1801,
      "ki": 1802,
      "kno": 1803,
      "kli": 1804,
      "kir": 1805,
      "kna": 1806,
      "kill": 1807,
      "knew": 1808,
      "lin": 1809,
      "lor": 1810,
      "lay": 1811,
      "lod": 1812,
      "lone": 1813,
      "lti": 1814,
      "lcome": 1815,
      "loom": 1816,
      "luck": 1817,
      "lary": 1818,
      "lations": 1819,
      "later": 1820,
      "lord": 1821,
      "lucky": 1822,
      "lante": 1823,
      "mas": 1824,
      "mid": 1825,
      "mir": 1826,
      "mone": 1827,
      "mant": 1828,
      "mus": 1829,
      "mind": 1830,
      "mur": 1831,
      "mak": 1832,
      "mine": 1833,
      "mil": 1834,
      "mood": 1835,
      "mile": 1836,
      "mist": 1837,
      "mpor": 1838,
      "mass": 1839,
      "mber": 1840,
      "mild": 1841,
      "mix": 1842,
      "model": 1843,
      "mimo": 1844,
      "nu": 1845,
      "nx": 1846,
      "nit": 1847,
      "nes": 1848,
      "nch": 1849,
      "nic": 1850,
      "nam": 1851,
      "nie": 1852,
      "nation": 1853,
      "ness": 1854,
      "nia": 1855,
      "nations": 1856,
      "nger": 1857,
      "oa": 1858,
      "oth": 1859,
      "ore": 1860,
      "oard": 1861,
      "oce": 1862,
      "osa": 1863,
      "oga": 1864,
      "otic": 1865,
      "obse": 1866,
      "py": 1867,
      "par": 1868,
      "pay": 1869,
      "pal": 1870,
      "pel": 1871,
      "pack": 1872,
      "porn": 1873,
      "pace": 1874,
      "pts": 1875,
      "patch": 1876,
      "power": 1877,
      "puppet": 1878,
      "pattern": 1879,
      "pair": 1880,
      "ras": 1881,
      "rab": 1882,
      "rna": 1883,
      "run": 1884,
      "ruse": 1885,
      "rind": 1886,
      "rack": 1887,
      "rate": 1888,
      "rite": 1889,
      "rance": 1890,
      "rhy": 1891,
      "rush": 1892,
      "ratching": 1893,
      "sin": 1894,
      "sat": 1895,
      "sle": 1896,
      "sas": 1897,
      "sco": 1898,
      "sun": 1899,
      "sag": 1900,
      "spe": 1901,
      "sho": 1902,
      "sill": 1903,
      "squ": 1904,
      "swo": 1905,
      "sked": 1906,
      "smu": 1907,
      "sation": 1908,
      "sses": 1909,
      "six": 1910,
      "sign": 1911,
      "shamp": 1912,
      "skir": 1913,
      "tw": 1914,
      "tin": 1915,
      "ton": 1916,
      "tre": 1917,
      "tes": 1918,
      "tch": 1919,
      "twe": 1920,
      "tro": 1921,
      "tent": 1922,
      "tally": 1923,
      "tak": 1924,
      "tane": 1925,
      "tling": 1926,
      "treat": 1927,
      "tered": 1928,
      "teach": 1929,
      "tshirt": 1930,
      "uv": 1931,
      "ual": 1932,
      "uro": 1933,
      "una": 1934,
      "ury": 1935,
      "ude": 1936,
      "uate": 1937,
      "ucer": 1938,
      "uda": 1939,
      "ucop": 1940,
      "ucin": 1941,
      "ugly": 1942,
      "va": 1943,
      "vin": 1944,
      "vis": 1945,
      "vile": 1946,
      "vom": 1947,
      "vated": 1948,
      "vity": 1949,
      "vered": 1950,
      "virg": 1951,
      "ws": 1952,
      "win": 1953,
      "wre": 1954,
      "wand": 1955,
      "wall": 1956,
      "wes": 1957,
      "wed": 1958,
      "wup": 1959,
      "wus": 1960,
      "wad": 1961,
      "wake": 1962,
      "wart": 1963,
      "wine": 1964,
      "wish": 1965,
      "wood": 1966,
      "witch": 1967,
      "wers": 1968,
      "wron": 1969,
      "writ": 1970,
      "write": 1971,
      "xwell": 1972,
      "xim": 1973,
      "xiety": 1974,
      "ys": 1975,
      "yal": 1976,
      "yet": 1977,
      "yest": 1978,
      "yucky": 1979,
      "ysis": 1980,
      "yodel": 1981,
      "yoga": 1982,
      "zy": 1983,
      "zen": 1984,
      "zit": 1985,
      "zar": 1986,
      "zill": 1987,
      "€™": 1988,
      "thm": 1989,
      "thra": 1990,
      "thru": 1991,
      "inat": 1992,
      "inha": 1993,
      "inch": 1994,
      "inion": 1995,
      "insu": 1996,
      "inep": 1997,
      "iness": 1998,
      "inia": 1999,
      "incre": 2000,
      "inery": 2001,
      "infla": 2002,
      "infect": 2003,
      "inferring": 2004,
      "independent": 2005,
      "ans": 2006,
      "anno": 2007,
      "anal": 2008,
      "aned": 2009,
      "anish": 2010,
      "answer": 2011,
      "anxiety": 2012,
      "erst": 2013,
      "eras": 2014,
      "erman": 2015,
      "erday": 2016,
      "erating": 2017,
      "eriv": 2018,
      "ond": 2019,
      "online": 2020,
      "ontane": 2021,
      "aton": 2022,
      "aten": 2023,
      "atul": 2024,
      "attit": 2025,
      "younger": 2026,
      "rey": 2027,
      "reme": 2028,
      "reli": 2029,
      "reco": 2030,
      "ream": 2031,
      "rede": 2032,
      "requ": 2033,
      "rela": 2034,
      "reach": 2035,
      "relieve": 2036,
      "report": 2037,
      "rent": 2038,
      "ressing": 2039,
      "reestabl": 2040,
      "referring": 2041,
      "resolution": 2042,
      "relations": 2043,
      "rewup": 2044,
      "thes": 2045,
      "thetic": 2046,
      "theore": 2047,
      "towe": 2048,
      "tory": 2049,
      "toast": 2050,
      "toge": 2051,
      "topic": 2052,
      "toms": 2053,
      "tomb": 2054,
      "town": 2055,
      "tomorr": 2056,
      "torna": 2057,
      "totally": 2058,
      "lla": 2059,
      "lling": 2060,
      "llar": 2061,
      "lldo": 2062,
      "llect": 2063,
      "ston": 2064,
      "stea": 2065,
      "stone": 2066,
      "stad": 2067,
      "string": 2068,
      "stable": 2069,
      "stem": 2070,
      "stling": 2071,
      "steel": 2072,
      "steal": 2073,
      "stream": 2074,
      "ene": 2075,
      "eny": 2076,
      "ench": 2077,
      "encour": 2078,
      "entheor": 2079,
      "itar": 2080,
      "itche": 2081,
      "ities": 2082,
      "ise": 2083,
      "ism": 2084,
      "ison": 2085,
      "ishe": 2086,
      "ised": 2087,
      "isper": 2088,
      "ispy": 2089,
      "met": 2090,
      "mesto": 2091,
      "aring": 2092,
      "arly": 2093,
      "arant": 2094,
      "arche": 2095,
      "arily": 2096,
      "arms": 2097,
      "sees": 2098,
      "semin": 2099,
      "sets": 2100,
      "sect": 2101,
      "secre": 2102,
      "sevent": 2103,
      "season": 2104,
      "selling": 2105,
      "ort": 2106,
      "oral": 2107,
      "oria": 2108,
      "orah": 2109,
      "nose": 2110,
      "nothin": 2111,
      "vel": 2112,
      "vest": 2113,
      "velo": 2114,
      "veling": 2115,
      "vels": 2116,
      "vecch": 2117,
      "leen": 2118,
      "lead": 2119,
      "less": 2120,
      "lett": 2121,
      "lebr": 2122,
      "lectu": 2123,
      "lephone": 2124,
      "leaned": 2125,
      "levels": 2126,
      "asing": 2127,
      "asses": 2128,
      "ofin": 2129,
      "ofess": 2130,
      "often": 2131,
      "hell": 2132,
      "heal": 2133,
      "hemorr": 2134,
      "bee": 2135,
      "bel": 2136,
      "bell": 2137,
      "beca": 2138,
      "belong": 2139,
      "beaut": 2140,
      "beaver": 2141,
      "beloved": 2142,
      "begun": 2143,
      "betwe": 2144,
      "beans": 2145,
      "beaten": 2146,
      "goofin": 2147,
      "kes": 2148,
      "lip": 2149,
      "liqu": 2150,
      "livery": 2151,
      "liber": 2152,
      "lima": 2153,
      "limb": 2154,
      "lidays": 2155,
      "lihood": 2156,
      "liva": 2157,
      "hack": 2158,
      "haps": 2159,
      "hauser": 2160,
      "whil": 2161,
      "white": 2162,
      "which": 2163,
      "esar": 2164,
      "owe": 2165,
      "ows": 2166,
      "owing": 2167,
      "chic": 2168,
      "chang": 2169,
      "chim": 2170,
      "change": 2171,
      "chlor": 2172,
      "chnic": 2173,
      "chasing": 2174,
      "outside": 2175,
      "alread": 2176,
      "edge": 2177,
      "edito": 2178,
      "icing": 2179,
      "icill": 2180,
      "icago": 2181,
      "icide": 2182,
      "oops": 2183,
      "wet": 2184,
      "weight": 2185,
      "weak": 2186,
      "weird": 2187,
      "weave": 2188,
      "weather": 2189,
      "welcome": 2190,
      "rito": 2191,
      "rific": 2192,
      "soon": 2193,
      "sock": 2194,
      "sored": 2195,
      "soci": 2196,
      "socks": 2197,
      "social": 2198,
      "ute": 2199,
      "uts": 2200,
      "widen": 2201,
      "wigs": 2202,
      "width": 2203,
      "acro": 2204,
      "acce": 2205,
      "acti": 2206,
      "accom": 2207,
      "accomm": 2208,
      "coa": 2209,
      "coke": 2210,
      "cold": 2211,
      "cover": 2212,
      "cocon": 2213,
      "cope": 2214,
      "coast": 2215,
      "colon": 2216,
      "covered": 2217,
      "cocoa": 2218,
      "eagle": 2219,
      "form": 2220,
      "forbod": 2221,
      "formed": 2222,
      "forkli": 2223,
      "ids": 2224,
      "ider": 2225,
      "iders": 2226,
      "idio": 2227,
      "dom": 2228,
      "dozen": 2229,
      "dollar": 2230,
      "abia": 2231,
      "aboard": 2232,
      "etly": 2233,
      "etings": 2234,
      "justice": 2235,
      "Nothing": 2236,
      "Nobody": 2237,
      "roy": 2238,
      "rose": 2239,
      "role": 2240,
      "rocks": 2241,
      "rocked": 2242,
      "rogue": 2243,
      "robot": 2244,
      "enty": 2245,
      "ented": 2246,
      "entertain": 2247,
      "entrance": 2248,
      "elle": 2249,
      "ellan": 2250,
      "ellent": 2251,
      "Which": 2252,
      "Whoa": 2253,
      "Whisper": 2254,
      "ament": 2255,
      "amus": 2256,
      "ambi": 2257,
      "amazing": 2258,
      "amond": 2259,
      "vert": 2260,
      "verse": 2261,
      "versation": 2262,
      "done": 2263,
      "donuts": 2264,
      "area": 2265,
      "ared": 2266,
      "areas": 2267,
      "arent": 2268,
      "odate": 2269,
      "yours": 2270,
      "Then": 2271,
      "known": 2272,
      "knows": 2273,
      "loe": 2274,
      "lost": 2275,
      "lose": 2276,
      "load": 2277,
      "losing": 2278,
      "loaf": 2279,
      "loyal": 2280,
      "antentheor": 2281,
      "ify": 2282,
      "iful": 2283,
      "mock": 2284,
      "moving": 2285,
      "movie": 2286,
      "moved": 2287,
      "movement": 2288,
      "usually": 2289,
      "notion": 2290,
      "cannot": 2291,
      "ung": 2292,
      "uny": 2293,
      "unate": 2294,
      "uncen": 2295,
      "univer": 2296,
      "unstable": 2297,
      "unusually": 2298,
      "capo": 2299,
      "capp": 2300,
      "nel": 2301,
      "nest": 2302,
      "neck": 2303,
      "nearly": 2304,
      "liked": 2305,
      "likes": 2306,
      "ional": 2307,
      "adas": 2308,
      "advent": 2309,
      "addle": 2310,
      "advanced": 2311,
      "admir": 2312,
      "Its": 2313,
      "Itali": 2314,
      "dement": 2315,
      "deep": 2316,
      "degre": 2317,
      "decent": 2318,
      "decen": 2319,
      "destructive": 2320,
      "defence": 2321,
      "develo": 2322,
      "delivery": 2323,
      "hero": 2324,
      "herself": 2325,
      "hernia": 2326,
      "sum": 2327,
      "suit": 2328,
      "suck": 2329,
      "suming": 2330,
      "suicide": 2331,
      "celon": 2332,
      "cepts": 2333,
      "celebr": 2334,
      "fear": 2335,
      "feed": 2336,
      "feet": 2337,
      "felt": 2338,
      "opping": 2339,
      "opinion": 2340,
      "operating": 2341,
      "sheep": 2342,
      "tiest": 2343,
      "tired": 2344,
      "tiles": 2345,
      "sometimes": 2346,
      "....": 2347,
      "gums": 2348,
      "guitar": 2349,
      "guarant": 2350,
      "however": 2351,
      "induce": 2352,
      "arter": 2353,
      "artment": 2354,
      "Whats": 2355,
      "ager": 2356,
      "ages": 2357,
      "aged": 2358,
      "agna": 2359,
      "agne": 2360,
      "aggle": 2361,
      "agnet": 2362,
      "agons": 2363,
      "ending": 2364,
      "ended": 2365,
      "gotten": 2366,
      "bution": 2367,
      "manner": 2368,
      "manager": 2369,
      "These": 2370,
      "perate": 2371,
      "perfect": 2372,
      "perhaps": 2373,
      "perform": 2374,
      "pervert": 2375,
      "saw": 2376,
      "sale": 2377,
      "sail": 2378,
      "saving": 2379,
      "saliva": 2380,
      "tub": 2381,
      "tured": 2382,
      "tucked": 2383,
      "seeing": 2384,
      "consc": 2385,
      "contri": 2386,
      "conclu": 2387,
      "concer": 2388,
      "constructive": 2389,
      "confused": 2390,
      "contro": 2391,
      "convin": 2392,
      "conversation": 2393,
      "concepts": 2394,
      "terrib": 2395,
      "ternation": 2396,
      "terrific": 2397,
      "worn": 2398,
      "worst": 2399,
      "worried": 2400,
      "wanted": 2401,
      "hia": 2402,
      "hip": 2403,
      "hire": 2404,
      "mention": 2405,
      "mentary": 2406,
      "rain": 2407,
      "rael": 2408,
      "rather": 2409,
      "raise": 2410,
      "tear": 2411,
      "tequ": 2412,
      "teles": 2413,
      "tected": 2414,
      "tempor": 2415,
      "teeny": 2416,
      "telephone": 2417,
      "technic": 2418,
      "talkie": 2419,
      "lfill": 2420,
      "peer": 2421,
      "pear": 2422,
      "peek": 2423,
      "probe": 2424,
      "protected": 2425,
      "ssion": 2426,
      "meaning": 2427,
      "astic": 2428,
      "astron": 2429,
      "littered": 2430,
      "anybody": 2431,
      "tools": 2432,
      "comments": 2433,
      "lovely": 2434,
      "Lee": 2435,
      "Leia": 2436,
      "both": 2437,
      "board": 2438,
      "bother": 2439,
      "bott": 2440,
      "boson": 2441,
      "boiling": 2442,
      "bosses": 2443,
      "ievement": 2444,
      "pot": 2445,
      "positive": 2446,
      "pocket": 2447,
      "pothetic": 2448,
      "tless": 2449,
      "tlestar": 2450,
      "ummet": 2451,
      "ately": 2452,
      "Web": 2453,
      "Weā": 2454,
      "geon": 2455,
      "geons": 2456,
      "host": 2457,
      "hole": 2458,
      "holidays": 2459,
      "hoids": 2460,
      "quee": 2461,
      "quented": 2462,
      "quarter": 2463,
      "urs": 2464,
      "urdays": 2465,
      "vens": 2466,
      "venus": 2467,
      "anky": 2468,
      "ankly": 2469,
      "romagnet": 2470,
      "backs": 2471,
      "backward": 2472,
      "ches": 2473,
      "cheer": 2474,
      "cheek": 2475,
      "cheese": 2476,
      "couldn": 2477,
      "expl": 2478,
      "exactly": 2479,
      "exotic": 2480,
      "gious": 2481,
      "gilante": 2482,
      "giene": 2483,
      "plate": 2484,
      "plish": 2485,
      "plane": 2486,
      "plenty": 2487,
      "plummet": 2488,
      "press": 2489,
      "pressing": 2490,
      "predic": 2491,
      "stomach": 2492,
      "women": 2493,
      "womb": 2494,
      "ously": 2495,
      "comes": 2496,
      "Sovi": 2497,
      "eping": 2498,
      "epinep": 2499,
      "grey": 2500,
      "greasy": 2501,
      "greetings": 2502,
      "girlie": 2503,
      "makes": 2504,
      "makeup": 2505,
      "ppy": 2506,
      "pped": 2507,
      "ppali": 2508,
      "rude": 2509,
      "rument": 2510,
      "rules": 2511,
      "short": 2512,
      "shopping": 2513,
      "spring": 2514,
      "spontane": 2515,
      "spleen": 2516,
      "spider": 2517,
      "spending": 2518,
      "hadn": 2519,
      "downhill": 2520,
      "ears": 2521,
      "multi": 2522,
      "scout": 2523,
      "scary": 2524,
      "scratching": 2525,
      "screwup": 2526,
      "scared": 2527,
      "inese": 2528,
      "ishy": 2529,
      "ishment": 2530,
      "willing": 2531,
      "Chick": 2532,
      "Christ": 2533,
      "Churo": 2534,
      "Chicago": 2535,
      "Chloe": 2536,
      "Chinese": 2537,
      "ila": 2538,
      "iladas": 2539,
      "nightclu": 2540,
      "ular": 2541,
      "acement": 2542,
      "Allen": 2543,
      "bug": 2544,
      "buy": 2545,
      "burying": 2546,
      "buash": 2547,
      "bucket": 2548,
      "buying": 2549,
      "bulldo": 2550,
      "gazar": 2551,
      "job": 2552,
      "join": 2553,
      "joke": 2554,
      "jogg": 2555,
      "mint": 2556,
      "minor": 2557,
      "mighty": 2558,
      "putin": 2559,
      "putting": 2560,
      "site": 2561,
      "sity": 2562,
      "tells": 2563,
      "telling": 2564,
      "waff": 2565,
      "waii": 2566,
      "studied": 2567,
      "medical": 2568,
      "ctron": 2569,
      "ctromagnet": 2570,
      "descent": 2571,
      "desperate": 2572,
      "iled": 2573,
      "lapel": 2574,
      "label": 2575,
      "mayor": 2576,
      "starts": 2577,
      "startled": 2578,
      "itchy": 2579,
      "leather": 2580,
      "Bean": 2581,
      "carry": 2582,
      "carving": 2583,
      "carouse": 2584,
      "eye": 2585,
      "eyed": 2586,
      "estef": 2587,
      "fix": 2588,
      "fire": 2589,
      "glad": 2590,
      "glish": 2591,
      "glaring": 2592,
      "gloria": 2593,
      "rings": 2594,
      "sons": 2595,
      "actica": 2596,
      "bigger": 2597,
      "Internation": 2598,
      "class": 2599,
      "classes": 2600,
      "crush": 2601,
      "crispy": 2602,
      "cranky": 2603,
      "firm": 2604,
      "handle": 2605,
      "handed": 2606,
      "monster": 2607,
      "pork": 2608,
      "portive": 2609,
      "swallowed": 2610,
      "switche": 2611,
      "swoops": 2612,
      "train": 2613,
      "traveling": 2614,
      "wont": 2615,
      "ersfield": 2616,
      "lives": 2617,
      "livelihood": 2618,
      "waiting": 2619,
      "waitressing": 2620,
      "Noooo": 2621,
      "Ofcourse": 2622,
      "Office": 2623,
      "Once": 2624,
      "Regard": 2625,
      "Rock": 2626,
      "achute": 2627,
      "achievement": 2628,
      "dinosa": 2629,
      "gratul": 2630,
      "growing": 2631,
      "igner": 2632,
      "igswi": 2633,
      "kinda": 2634,
      "overheard": 2635,
      "overlord": 2636,
      "psack": 2637,
      "picked": 2638,
      "roniz": 2639,
      "slice": 2640,
      "slides": 2641,
      "sliced": 2642,
      "slipped": 2643,
      "trial": 2644,
      "tried": 2645,
      "tribble": 2646,
      "reduce": 2647,
      "stands": 2648,
      "whereas": 2649,
      "Notify": 2650,
      "Thanks": 2651,
      "needs": 2652,
      "ppening": 2653,
      "underwear": 2654,
      "?!?!": 2655,
      "Ahh": 2656,
      "Blanc": 2657,
      "Hawaii": 2658,
      "Happening": 2659,
      "Justice": 2660,
      "Lost": 2661,
      "Lois": 2662,
      "Lobster": 2663,
      "Prison": 2664,
      "bale": 2665,
      "based": 2666,
      "bailed": 2667,
      "breaths": 2668,
      "brella": 2669,
      "divor": 2670,
      "diamond": 2671,
      "dingy": 2672,
      "discre": 2673,
      "disap": 2674,
      "discomfort": 2675,
      "dismant": 2676,
      "discover": 2677,
      "elected": 2678,
      "elevated": 2679,
      "electron": 2680,
      "evening": 2681,
      "father": 2682,
      "favor": 2683,
      "faith": 2684,
      "flake": 2685,
      "flatter": 2686,
      "flush": 2687,
      "lerating": 2688,
      "mens": 2689,
      "menses": 2690,
      "menorah": 2691,
      "omic": 2692,
      "professor": 2693,
      "prised": 2694,
      "profess": 2695,
      "pricing": 2696,
      "pruny": 2697,
      "synch": 2698,
      "system": 2699,
      "superst": 2700,
      "supportive": 2701,
      "shower": 2702,
      "showing": 2703,
      "track": 2704,
      "trash": 2705,
      "trunk": 2706,
      "invent": 2707,
      "invite": 2708,
      "inviting": 2709,
      "instrument": 2710,
      "anecdo": 2711,
      "angers": 2712,
      "legs": 2713,
      "hearing": 2714,
      "keys": 2715,
      "lifeguard": 2716,
      "happening": 2717,
      "actual": 2718,
      "feels": 2719,
      "feelers": 2720,
      "opens": 2721,
      "opening": 2722,
      "everyday": 2723,
      "clues": 2724,
      "forever": 2725,
      "foreigner": 2726,
      "Also": 2727,
      "Alright": 2728,
      "Almost": 2729,
      "Albert": 2730,
      "Exactly": 2731,
      "Israel": 2732,
      "Mars": 2733,
      "Marry": 2734,
      "Marion": 2735,
      "Marvel": 2736,
      "Raiders": 2737,
      "Stan": 2738,
      "Stick": 2739,
      "Station": 2740,
      "Street": 2741,
      "aware": 2742,
      "awful": 2743,
      "brand": 2744,
      "brown": 2745,
      "brought": 2746,
      "books": 2747,
      "created": 2748,
      "casm": 2749,
      "casual": 2750,
      "cute": 2751,
      "cutie": 2752,
      "dummy": 2753,
      "dumps": 2754,
      "fiction": 2755,
      "gled": 2756,
      "hopeless": 2757,
      "import": 2758,
      "immediate": 2759,
      "kingdom": 2760,
      "marquee": 2761,
      "magellan": 2762,
      "publ": 2763,
      "pudding": 2764,
      "penicill": 2765,
      "piece": 2766,
      "pieces": 2767,
      "picky": 2768,
      "single": 2769,
      "sounded": 2770,
      "true": 2771,
      "truth": 2772,
      "vix": 2773,
      "vigilante": 2774,
      "threw": 2775,
      "inity": 2776,
      "licated": 2777,
      "listen": 2778,
      "hamper": 2779,
      "chosen": 2780,
      "chocolate": 2781,
      "charge": 2782,
      "charming": 2783,
      "weeks": 2784,
      "moments": 2785,
      "points": 2786,
      "pointless": 2787,
      "postmens": 2788,
      "excuse": 2789,
      "exciting": 2790,
      "crampy": 2791,
      "wondering": 2792,
      "picture": 2793,
      ",\"</": 2794,
      "120": 2795,
      "12th": 2796,
      "Answer": 2797,
      "Angel": 2798,
      "Assuming": 2799,
      "Caesar": 2800,
      "Carrey": 2801,
      "Dragons": 2802,
      "Jews": 2803,
      "Space": 2804,
      "Spanish": 2805,
      "Springs": 2806,
      "Seems": 2807,
      "alien": 2808,
      "blood": 2809,
      "blunt": 2810,
      "busy": 2811,
      "business": 2812,
      "bunny": 2813,
      "brave": 2814,
      "burst": 2815,
      "burned": 2816,
      "burrito": 2817,
      "cervix": 2818,
      "century": 2819,
      "cornucop": 2820,
      "drunk": 2821,
      "deaf": 2822,
      "death": 2823,
      "deaths": 2824,
      "final": 2825,
      "fined": 2826,
      "finish": 2827,
      "ference": 2828,
      "frequented": 2829,
      "famous": 2830,
      "family": 2831,
      "familiar": 2832,
      "floor": 2833,
      "flossing": 2834,
      "floppy": 2835,
      "gniz": 2836,
      "garage": 2837,
      "garbage": 2838,
      "gargled": 2839,
      "hypothetic": 2840,
      "hygiene": 2841,
      "hurtling": 2842,
      "hangs": 2843,
      "hanging": 2844,
      "kidding": 2845,
      "kicking": 2846,
      "ltant": 2847,
      "lasagna": 2848,
      "phine": 2849,
      "ruptured": 2850,
      "sarcastic": 2851,
      "smokes": 2852,
      "saddle": 2853,
      "touch": 2854,
      "toupee": 2855,
      "touches": 2856,
      "tionally": 2857,
      "tionary": 2858,
      "taste": 2859,
      "tastes": 2860,
      "tasteless": 2861,
      "walking": 2862,
      "walkie": 2863,
      "intercourse": 2864,
      "interfac": 2865,
      "interference": 2866,
      "reading": 2867,
      "struggl": 2868,
      "meeting": 2869,
      "meantime": 2870,
      "heavens": 2871,
      "headhun": 2872,
      "liars": 2873,
      "fortunate": 2874,
      "devil": 2875,
      "surgery": 2876,
      "surgeon": 2877,
      "surprised": 2878,
      "company": 2879,
      "compiling": 2880,
      "complicated": 2881,
      "boyfriend": 2882,
      "possible": 2883,
      "experimenting": 2884,
      "present": 2885,
      "Somebody": 2886,
      "building": 2887,
      "buildings": 2888,
      "Doesn": 2889,
      "supply": 2890,
      "Excellent": 2891,
      "penises": 2892,
      "initial": 2893,
      "initiating": 2894,
      "initiated": 2895,
      "suggests": 2896,
      "questions": 2897,
      "Ark": 2898,
      "Arabia": 2899,
      "Anyway": 2900,
      "Bono": 2901,
      "Bonnie": 2902,
      "Come": 2903,
      "Collect": 2904,
      "Delhi": 2905,
      "Delvecch": 2906,
      "Fraggle": 2907,
      "Frankly": 2908,
      "Goth": 2909,
      "Julie": 2910,
      "Judy": 2911,
      "Lords": 2912,
      "Maxwell": 2913,
      "Plus": 2914,
      "Placement": 2915,
      "Rederiv": 2916,
      "Same": 2917,
      "Sauv": 2918,
      "Sarcastic": 2919,
      "Sarcasm": 2920,
      "after": 2921,
      "auts": 2922,
      "average": 2923,
      "apartment": 2924,
      "apartments": 2925,
      "broke": 2926,
      "brother": 2927,
      "chali": 2928,
      "cameras": 2929,
      "closet": 2930,
      "clothes": 2931,
      "dudes": 2932,
      "dufus": 2933,
      "dirty": 2934,
      "dirtiest": 2935,
      "drop": 2936,
      "drove": 2937,
      "dared": 2938,
      "daredevil": 2939,
      "dressed": 2940,
      "dresses": 2941,
      "eggs": 2942,
      "fighting": 2943,
      "furnit": 2944,
      "foundation": 2945,
      "flail": 2946,
      "genre": 2947,
      "genius": 2948,
      "gglers": 2949,
      "hungry": 2950,
      "lady": 2951,
      "ladies": 2952,
      "machinery": 2953,
      "network": 2954,
      "pins": 2955,
      "pride": 2956,
      "privile": 2957,
      "popular": 2958,
      "pillows": 2959,
      "slow": 2960,
      "slash": 2961,
      "sissy": 2962,
      "sweet": 2963,
      "sweater": 2964,
      "swim": 2965,
      "snowflake": 2966,
      "sending": 2967,
      "title": 2968,
      "vided": 2969,
      "view": 2970,
      "wasted": 2971,
      "zero": 2972,
      "include": 2973,
      "including": 2974,
      "resumed": 2975,
      "resultant": 2976,
      "theory": 2977,
      "toilet": 2978,
      "toilets": 2979,
      "strange": 2980,
      "strangers": 2981,
      "staring": 2982,
      "stayed": 2983,
      "meaty": 2984,
      "learned": 2985,
      "becomes": 2986,
      "chicken": 2987,
      "account": 2988,
      "accounts": 2989,
      "mothers": 2990,
      "destroy": 2991,
      "subject": 2992,
      "subconsc": 2993,
      "highway": 2994,
      "testicle": 2995,
      "testicles": 2996,
      "promise": 2997,
      "promising": 2998,
      "billion": 2999,
      "complex": 3000,
      "complementary": 3001,
      "bottoms": 3002,
      "holding": 3003,
      "rubbing": 3004,
      "spelling": 3005,
      "earrings": 3006,
      "Channel": 3007,
      "establishe": 3008,
      "figure": 3009,
      "figured": 3010,
      "cleaning": 3011,
      "cleansing": 3012,
      "graders": 3013,
      "graduate": 3014,
      "ignon": 3015,
      "Lovely": 3016,
      "bathroom": 3017,
      "bathtub": 3018,
      "fairly": 3019,
      "involve": 3020,
      "involved": 3021,
      "awkwardness": 3022,
      "approach": 3023,
      "approxim": 3024,
      "risky": 3025,
      "atternut": 3026,
      "commercials": 3027,
      "supposed": 3028,
      "difficult": 3029,
      "difficulty": 3030,
      "fashioned": 3031,
      "accidentally": 3032,
      "opportunity": 3033,
      "opportunities": 3034,
      "sarcasmoholics": 3035,
      "14th": 3036,
      "1917": 3037,
      "Abbott": 3038,
      "Advanced": 3039,
      "Amazing": 3040,
      "Actually": 3041,
      "BFF": 3042,
      "Box": 3043,
      "Battlestar": 3044,
      "Barcelon": 3045,
      "Bakersfield": 3046,
      "British": 3047,
      "Crash": 3048,
      "Congratul": 3049,
      "Chaucer": 3050,
      "Crazy": 3051,
      "Chocolate": 3052,
      "Cwaigswi": 3053,
      "Claws": 3054,
      "Cheese": 3055,
      "Depot": 3056,
      "Doroth": 3057,
      "Dictionary": 3058,
      "Damone": 3059,
      "Dungeons": 3060,
      "Department": 3061,
      "Dumped": 3062,
      "DANGER": 3063,
      "English": 3064,
      "Electromagnet": 3065,
      "Equations": 3066,
      "Einstein": 3067,
      "Finish": 3068,
      "Factory": 3069,
      "First": 3070,
      "Grant": 3071,
      "Giselle": 3072,
      "Galactica": 3073,
      "Geller": 3074,
      "Gablehauser": 3075,
      "Grisham": 3076,
      "Houston": 3077,
      "Hofstad": 3078,
      "Hope": 3079,
      "Hornswo": 3080,
      "Hulk": 3081,
      "Hildy": 3082,
      "Indian": 3083,
      "Iverson": 3084,
      "Imagine": 3085,
      "Jamesto": 3086,
      "Jerry": 3087,
      "Josephine": 3088,
      "John": 3089,
      "Koothra": 3090,
      "League": 3091,
      "Listen": 3092,
      "Monica": 3093,
      "Miller": 3094,
      "Nuys": 3095,
      "Next": 3096,
      "Narnia": 3097,
      "NASA": 3098,
      "Occam": 3099,
      "Phir": 3100,
      "Panchali": 3101,
      "Piscapo": 3102,
      "Palm": 3103,
      "Priya": 3104,
      "Provided": 3105,
      "Poppins": 3106,
      "Phillis": 3107,
      "Quantentheor": 3108,
      "Renaiss": 3109,
      "Rasputin": 3110,
      "Resuda": 3111,
      "SyFy": 3112,
      "Since": 3113,
      "Sonny": 3114,
      "Stop": 3115,
      "Saying": 3116,
      "Sweety": 3117,
      "Scotty": 3118,
      "Superman": 3119,
      "Sadly": 3120,
      "Sophia": 3121,
      "Stewart": 3122,
      "Squatternut": 3123,
      "Strahl": 3124,
      "Tale": 3125,
      "Trust": 3126,
      "Turned": 3127,
      "Twenty": 3128,
      "Vegas": 3129,
      "Virginia": 3130,
      "Wiki": 3131,
      "Wheaton": 3132,
      "Walmart": 3133,
      "audition": 3134,
      "apparent": 3135,
      "bonus": 3136,
      "boring": 3137,
      "bowel": 3138,
      "boots": 3139,
      "bloated": 3140,
      "bums": 3141,
      "blanket": 3142,
      "clips": 3143,
      "crotch": 3144,
      "crafts": 3145,
      "clicked": 3146,
      "champagne": 3147,
      "doooo": 3148,
      "drive": 3149,
      "duties": 3150,
      "dusty": 3151,
      "drawers": 3152,
      "duration": 3153,
      "dashboard": 3154,
      "emotionally": 3155,
      "economic": 3156,
      "equal": 3157,
      "eventually": 3158,
      "evidence": 3159,
      "fulfill": 3160,
      "fondest": 3161,
      "fridge": 3162,
      "future": 3163,
      "fiddling": 3164,
      "fantastic": 3165,
      "gorup": 3166,
      "gravy": 3167,
      "hrine": 3168,
      "human": 3169,
      "hint": 3170,
      "hooked": 3171,
      "ipecac": 3172,
      "knock": 3173,
      "knapsack": 3174,
      "killed": 3175,
      "lines": 3176,
      "lodge": 3177,
      "lonely": 3178,
      "larynx": 3179,
      "midgets": 3180,
      "money": 3181,
      "musical": 3182,
      "murder": 3183,
      "maker": 3184,
      "milk": 3185,
      "miles": 3186,
      "mistake": 3187,
      "massages": 3188,
      "mildly": 3189,
      "models": 3190,
      "mimosas": 3191,
      "nuclear": 3192,
      "nesses": 3193,
      "naming": 3194,
      "ocean": 3195,
      "obsession": 3196,
      "parachute": 3197,
      "palace": 3198,
      "package": 3199,
      "rasor": 3200,
      "rabies": 3201,
      "rinds": 3202,
      "rhythm": 3203,
      "sink": 3204,
      "saturdays": 3205,
      "sleeping": 3206,
      "scott": 3207,
      "sunbrella": 3208,
      "saggy": 3209,
      "speled": 3210,
      "shot": 3211,
      "silly": 3212,
      "squishy": 3213,
      "skedaddle": 3214,
      "smugglers": 3215,
      "shampoo": 3216,
      "skirts": 3217,
      "twice": 3218,
      "tiny": 3219,
      "tonight": 3220,
      "treed": 3221,
      "tentive": 3222,
      "taken": 3223,
      "unagi": 3224,
      "ucino": 3225,
      "visit": 3226,
      "vomiting": 3227,
      "virginity": 3228,
      "winner": 3229,
      "wrestling": 3230,
      "wandered": 3231,
      "wallet": 3232,
      "wedding": 3233,
      "wuss": 3234,
      "wady": 3235,
      "woods": 3236,
      "wrong": 3237,
      "written": 3238,
      "yesterday": 3239,
      "zillion": 3240,
      "inattentive": 3241,
      "inhaler": 3242,
      "insult": 3243,
      "increase": 3244,
      "inflamed": 3245,
      "infection": 3246,
      "annoying": 3247,
      "analysis": 3248,
      "attitude": 3249,
      "remember": 3250,
      "religious": 3251,
      "recogniz": 3252,
      "redefined": 3253,
      "requires": 3254,
      "relax": 3255,
      "reaching": 3256,
      "relieved": 3257,
      "reestablishment": 3258,
      "relationship": 3259,
      "theoretic": 3260,
      "towels": 3261,
      "together": 3262,
      "tombstone": 3263,
      "tomorrow": 3264,
      "tornado": 3265,
      "steady": 3266,
      "enchiladas": 3267,
      "encouraged": 3268,
      "seminar": 3269,
      "section": 3270,
      "secret": 3271,
      "seventeen": 3272,
      "lesson": 3273,
      "letting": 3274,
      "lecture": 3275,
      "health": 3276,
      "hemorrhoids": 3277,
      "becaues": 3278,
      "beautiful": 3279,
      "between": 3280,
      "liquor": 3281,
      "liberarche": 3282,
      "limbic": 3283,
      "whilst": 3284,
      "chicked": 3285,
      "changing": 3286,
      "chimps": 3287,
      "chlorine": 3288,
      "already": 3289,
      "editors": 3290,
      "weaknesses": 3291,
      "socio": 3292,
      "widened": 3293,
      "across": 3294,
      "accelerating": 3295,
      "activity": 3296,
      "accomplish": 3297,
      "accommodate": 3298,
      "coconut": 3299,
      "colony": 3300,
      "forboded": 3301,
      "forklift": 3302,
      "idiot": 3303,
      "dollars": 3304,
      "entertaining": 3305,
      "amusing": 3306,
      "ambience": 3307,
      "loyalty": 3308,
      "mocking": 3309,
      "uncensored": 3310,
      "university": 3311,
      "cappucino": 3312,
      "adventure": 3313,
      "admirable": 3314,
      "Italian": 3315,
      "demented": 3316,
      "degrees": 3317,
      "decency": 3318,
      "developing": 3319,
      "celebrity": 3320,
      "guarantee": 3321,
      "manners": 3322,
      "savings": 3323,
      "contribution": 3324,
      "conclude": 3325,
      "concerned": 3326,
      "control": 3327,
      "convinced": 3328,
      "terribly": 3329,
      "tequila": 3330,
      "telescope": 3331,
      "temporarily": 3332,
      "technically": 3333,
      "peeking": 3334,
      "astronauts": 3335,
      "backwards": 3336,
      "cheesecake": 3337,
      "explain": 3338,
      "predicament": 3339,
      "Soviet": 3340,
      "epinephrine": 3341,
      "spontaneously": 3342,
      "multiverse": 3343,
      "screwups": 3344,
      "Chicken": 3345,
      "Christmas": 3346,
      "nightclub": 3347,
      "bulldozer": 3348,
      "gazara": 3349,
      "jogging": 3350,
      "waffles": 3351,
      "carousel": 3352,
      "estefan": 3353,
      "International": 3354,
      "switched": 3355,
      "Regarding": 3356,
      "dinosaurs": 3357,
      "overlords": 3358,
      "ronized": 3359,
      "divorced": 3360,
      "discreetly": 3361,
      "disappear": 3362,
      "dismantle": 3363,
      "favorite": 3364,
      "flattery": 3365,
      "menorahs": 3366,
      "professional": 3367,
      "synchronized": 3368,
      "superstition": 3369,
      "anecdotes": 3370,
      "lifeguards": 3371,
      "fictional": 3372,
      "important": 3373,
      "immediately": 3374,
      "publish": 3375,
      "penicillin": 3376,
      "Answering": 3377,
      "Angela": 3378,
      "cornucopia": 3379,
      "hypothetically": 3380,
      "interfacing": 3381,
      "struggling": 3382,
      "headhunter": 3383,
      "Delvecchio": 3384,
      "Rederivation": 3385,
      "Sauvignon": 3386,
      "furniture": 3387,
      "privilege": 3388,
      "subconscious": 3389,
      "established": 3390,
      "approximately": 3391,
      "Barcelona": 3392,
      "Congratulations": 3393,
      "Cwaigswist": 3394,
      "Dorothy": 3395,
      "Electromagnetism": 3396,
      "Hofstadter": 3397,
      "Hornswoggle": 3398,
      "Jamestown": 3399,
      "Koothrappali": 3400,
      "Quantentheorie": 3401,
      "Renaissance": 3402,
      "Strahlung": 3403,
      "apparently": 3404,
      "craftsman": 3405,
      "fulfilling": 3406,
      "recognize": 3407
    },
    "merges": [
      [
        "t",
        "h"
      ],
      [
        "o",
        "u"
      ],
      [
        "i",
        "n"
      ],
      [
        "a",
        "n"
      ],
      [
        "e",
        "r"
      ],
      [
        "o",
        "n"
      ],
      [
        "a",
        "t"
      ],
      [
        "y",
        "ou"
      ],
      [
        "r",
        "e"
      ],
      [
        "th",
        "e"
      ],
      [
        "in",
        "g"
      ],
      [
        "t",
        "o"
      ],
      [
        "l",
        "l"
      ],
      [
        "s",
        "t"
      ],
      [
        "e",
        "n"
      ],
      [
        "i",
        "t"
      ],
      [
        "i",
        "s"
      ],
      [
        "m",
        "e"
      ],
      [
        "a",
        "r"
      ],
      [
        "s",
        "e"
      ],
      [
        "o",
        "r"
      ],
      [
        "n",
        "o"
      ],
      [
        "v",
        "e"
      ],
      [
        "l",
        "e"
      ],
      [
        "a",
        "s"
      ],
      [
        "o",
        "f"
      ],
      [
        "h",
        "e"
      ],
      [
        "an",
        "d"
      ],
      [
        "b",
        "e"
      ],
      [
        "g",
        "o"
      ],
      [
        "k",
        "e"
      ],
      [
        "th",
        "at"
      ],
      [
        "l",
        "i"
      ],
      [
        "a",
        "y"
      ],
      [
        "h",
        "a"
      ],
      [
        "er",
        "e"
      ],
      [
        "g",
        "h"
      ],
      [
        "a",
        "ll"
      ],
      [
        "w",
        "h"
      ],
      [
        "e",
        "s"
      ],
      [
        "o",
        "w"
      ],
      [
        "c",
        "h"
      ],
      [
        "ou",
        "t"
      ],
      [
        "a",
        "l"
      ],
      [
        "l",
        "d"
      ],
      [
        "e",
        "d"
      ],
      [
        "gh",
        "t"
      ],
      [
        "i",
        "c"
      ],
      [
        "o",
        "o"
      ],
      [
        "w",
        "e"
      ],
      [
        "m",
        "y"
      ],
      [
        "r",
        "i"
      ],
      [
        "s",
        "o"
      ],
      [
        "u",
        "t"
      ],
      [
        "w",
        "i"
      ],
      [
        "a",
        "c"
      ],
      [
        "w",
        "as"
      ],
      [
        "u",
        "st"
      ],
      [
        "no",
        "w"
      ],
      [
        "c",
        "o"
      ],
      [
        "e",
        "a"
      ],
      [
        "f",
        "or"
      ],
      [
        "O",
        "h"
      ],
      [
        "i",
        "d"
      ],
      [
        "d",
        "o"
      ],
      [
        "a",
        "b"
      ],
      [
        "e",
        "t"
      ],
      [
        "i",
        "r"
      ],
      [
        "j",
        "ust"
      ],
      [
        "N",
        "o"
      ],
      [
        "n",
        "d"
      ],
      [
        "r",
        "o"
      ],
      [
        "en",
        "t"
      ],
      [
        "e",
        "ll"
      ],
      [
        "ha",
        "ve"
      ],
      [
        "W",
        "h"
      ],
      [
        "l",
        "y"
      ],
      [
        "wi",
        "th"
      ],
      [
        "Y",
        "ou"
      ],
      [
        "a",
        "m"
      ],
      [
        "v",
        "er"
      ],
      [
        "ou",
        "ld"
      ],
      [
        "d",
        "on"
      ],
      [
        "n",
        "a"
      ],
      [
        "a",
        "re"
      ],
      [
        "o",
        "d"
      ],
      [
        "you",
        "r"
      ],
      [
        "u",
        "p"
      ],
      [
        "th",
        "is"
      ],
      [
        "on",
        "e"
      ],
      [
        "T",
        "h"
      ],
      [
        "k",
        "now"
      ],
      [
        "l",
        "o"
      ],
      [
        "an",
        "t"
      ],
      [
        "ea",
        "h"
      ],
      [
        "i",
        "f"
      ],
      [
        "m",
        "o"
      ],
      [
        "r",
        "y"
      ],
      [
        "u",
        "s"
      ],
      [
        "no",
        "t"
      ],
      [
        "c",
        "an"
      ],
      [
        "u",
        "n"
      ],
      [
        "c",
        "a"
      ],
      [
        "n",
        "e"
      ],
      [
        "li",
        "ke"
      ],
      [
        "all",
        "y"
      ],
      [
        "i",
        "on"
      ],
      [
        "ar",
        "d"
      ],
      [
        "a",
        "d"
      ],
      [
        "ab",
        "out"
      ],
      [
        "I",
        "t"
      ],
      [
        "Y",
        "eah"
      ],
      [
        "u",
        "se"
      ],
      [
        "th",
        "ing"
      ],
      [
        "d",
        "e"
      ],
      [
        "h",
        "er"
      ],
      [
        "s",
        "u"
      ],
      [
        "a",
        "ke"
      ],
      [
        "c",
        "e"
      ],
      [
        "th",
        "ere"
      ],
      [
        "ou",
        "r"
      ],
      [
        "W",
        "ell"
      ],
      [
        "f",
        "e"
      ],
      [
        "i",
        "ght"
      ],
      [
        "o",
        "p"
      ],
      [
        "s",
        "he"
      ],
      [
        "t",
        "i"
      ],
      [
        "th",
        "in"
      ],
      [
        "wh",
        "at"
      ],
      [
        "ri",
        "ght"
      ],
      [
        "so",
        "me"
      ],
      [
        ".",
        "."
      ],
      [
        "g",
        "u"
      ],
      [
        "oo",
        "k"
      ],
      [
        "thin",
        "k"
      ],
      [
        "A",
        "nd"
      ],
      [
        "g",
        "et"
      ],
      [
        "h",
        "ow"
      ],
      [
        "in",
        "d"
      ],
      [
        "ar",
        "t"
      ],
      [
        "Wh",
        "at"
      ],
      [
        "a",
        "g"
      ],
      [
        "o",
        "se"
      ],
      [
        "en",
        "d"
      ],
      [
        "go",
        "t"
      ],
      [
        "b",
        "ut"
      ],
      [
        "k",
        "ay"
      ],
      [
        "m",
        "an"
      ],
      [
        "al",
        "k"
      ],
      [
        "Th",
        "at"
      ],
      [
        "T",
        "he"
      ],
      [
        "h",
        "ere"
      ],
      [
        "p",
        "er"
      ],
      [
        "s",
        "a"
      ],
      [
        "t",
        "u"
      ],
      [
        "se",
        "e"
      ],
      [
        "ca",
        "use"
      ],
      [
        "c",
        "on"
      ],
      [
        "e",
        "l"
      ],
      [
        "t",
        "er"
      ],
      [
        "w",
        "or"
      ],
      [
        "w",
        "ant"
      ],
      [
        "th",
        "er"
      ],
      [
        "go",
        "od"
      ],
      [
        "h",
        "i"
      ],
      [
        "m",
        "ent"
      ],
      [
        "r",
        "a"
      ],
      [
        "t",
        "e"
      ],
      [
        "t",
        "alk"
      ],
      [
        "w",
        "ould"
      ],
      [
        "ic",
        "e"
      ],
      [
        "ac",
        "k"
      ],
      [
        "H",
        "e"
      ],
      [
        "g",
        "on"
      ],
      [
        "l",
        "f"
      ],
      [
        "p",
        "e"
      ],
      [
        "p",
        "ro"
      ],
      [
        "s",
        "s"
      ],
      [
        "me",
        "an"
      ],
      [
        "gon",
        "na"
      ],
      [
        "a",
        "st"
      ],
      [
        "b",
        "i"
      ],
      [
        "c",
        "k"
      ],
      [
        "l",
        "it"
      ],
      [
        "l",
        "ook"
      ],
      [
        "s",
        "or"
      ],
      [
        "w",
        "ay"
      ],
      [
        "an",
        "y"
      ],
      [
        "re",
        "ally"
      ],
      [
        "to",
        "o"
      ],
      [
        "go",
        "ing"
      ],
      [
        "ow",
        "n"
      ],
      [
        "co",
        "m"
      ],
      [
        "lo",
        "ve"
      ],
      [
        "ti",
        "me"
      ],
      [
        "L",
        "e"
      ],
      [
        "O",
        "kay"
      ],
      [
        "b",
        "o"
      ],
      [
        "d",
        "id"
      ],
      [
        "i",
        "e"
      ],
      [
        "p",
        "o"
      ],
      [
        "t",
        "le"
      ],
      [
        "u",
        "m"
      ],
      [
        "at",
        "e"
      ],
      [
        "the",
        "y"
      ],
      [
        "W",
        "e"
      ],
      [
        "g",
        "e"
      ],
      [
        "h",
        "o"
      ],
      [
        "i",
        "ll"
      ],
      [
        "q",
        "u"
      ],
      [
        "u",
        "r"
      ],
      [
        "v",
        "en"
      ],
      [
        "ou",
        "nd"
      ],
      [
        "an",
        "k"
      ],
      [
        "of",
        "f"
      ],
      [
        "ri",
        "end"
      ],
      [
        "ro",
        "m"
      ],
      [
        "b",
        "ack"
      ],
      [
        "c",
        "he"
      ],
      [
        "c",
        "ould"
      ],
      [
        "e",
        "x"
      ],
      [
        "f",
        "rom"
      ],
      [
        "g",
        "i"
      ],
      [
        "p",
        "l"
      ],
      [
        "p",
        "re"
      ],
      [
        "s",
        "to"
      ],
      [
        "s",
        "ay"
      ],
      [
        "w",
        "o"
      ],
      [
        "ou",
        "s"
      ],
      [
        "on",
        "ard"
      ],
      [
        "be",
        "cause"
      ],
      [
        "wh",
        "o"
      ],
      [
        "co",
        "me"
      ],
      [
        "lit",
        "tle"
      ],
      [
        "sor",
        "ry"
      ],
      [
        "Le",
        "onard"
      ],
      [
        "S",
        "o"
      ],
      [
        "a",
        "k"
      ],
      [
        "e",
        "p"
      ],
      [
        "e",
        "ver"
      ],
      [
        "g",
        "re"
      ],
      [
        "g",
        "ir"
      ],
      [
        "m",
        "ake"
      ],
      [
        "p",
        "p"
      ],
      [
        "r",
        "u"
      ],
      [
        "s",
        "h"
      ],
      [
        "s",
        "p"
      ],
      [
        "w",
        "ere"
      ],
      [
        "ke",
        "d"
      ],
      [
        "ha",
        "d"
      ],
      [
        "ne",
        "w"
      ],
      [
        "R",
        "ose"
      ],
      [
        "b",
        "od"
      ],
      [
        "d",
        "own"
      ],
      [
        "e",
        "ar"
      ],
      [
        "m",
        "u"
      ],
      [
        "s",
        "c"
      ],
      [
        "in",
        "e"
      ],
      [
        "is",
        "h"
      ],
      [
        "or",
        "n"
      ],
      [
        "wh",
        "en"
      ],
      [
        "wi",
        "ll"
      ],
      [
        "pro",
        "b"
      ],
      [
        "B",
        "ut"
      ],
      [
        "C",
        "h"
      ],
      [
        "i",
        "l"
      ],
      [
        "l",
        "on"
      ],
      [
        "n",
        "ight"
      ],
      [
        "u",
        "h"
      ],
      [
        "u",
        "l"
      ],
      [
        "ou",
        "ght"
      ],
      [
        "the",
        "m"
      ],
      [
        "wh",
        "y"
      ],
      [
        "ic",
        "k"
      ],
      [
        "ac",
        "e"
      ],
      [
        "Wh",
        "y"
      ],
      [
        "gu",
        "y"
      ],
      [
        "hi",
        "m"
      ],
      [
        "bod",
        "y"
      ],
      [
        "A",
        "ll"
      ],
      [
        "b",
        "u"
      ],
      [
        "d",
        "ay"
      ],
      [
        "f",
        "ind"
      ],
      [
        "g",
        "a"
      ],
      [
        "j",
        "o"
      ],
      [
        "m",
        "in"
      ],
      [
        "m",
        "ight"
      ],
      [
        "n",
        "y"
      ],
      [
        "o",
        "h"
      ],
      [
        "p",
        "ut"
      ],
      [
        "s",
        "it"
      ],
      [
        "t",
        "s"
      ],
      [
        "t",
        "t"
      ],
      [
        "t",
        "ell"
      ],
      [
        "v",
        "ing"
      ],
      [
        "w",
        "a"
      ],
      [
        "at",
        "ion"
      ],
      [
        "st",
        "u"
      ],
      [
        "me",
        "d"
      ],
      [
        "oo",
        "d"
      ],
      [
        "we",
        "ll"
      ],
      [
        "mo",
        "re"
      ],
      [
        "su",
        "re"
      ],
      [
        "sa",
        "id"
      ],
      [
        "mu",
        "ch"
      ],
      [
        "H",
        "ow"
      ],
      [
        "c",
        "t"
      ],
      [
        "d",
        "es"
      ],
      [
        "f",
        "riend"
      ],
      [
        "h",
        "is"
      ],
      [
        "i",
        "le"
      ],
      [
        "l",
        "a"
      ],
      [
        "m",
        "ay"
      ],
      [
        "t",
        "ake"
      ],
      [
        "ou",
        "gh"
      ],
      [
        "at",
        "ch"
      ],
      [
        "st",
        "art"
      ],
      [
        "it",
        "ch"
      ],
      [
        "le",
        "a"
      ],
      [
        "be",
        "en"
      ],
      [
        "es",
        "s"
      ],
      [
        "do",
        "es"
      ],
      [
        "some",
        "thing"
      ],
      [
        "..",
        "."
      ],
      [
        "gre",
        "at"
      ],
      [
        "sh",
        "ould"
      ],
      [
        "lon",
        "g"
      ],
      [
        ".",
        "\""
      ],
      [
        "B",
        "e"
      ],
      [
        "J",
        "o"
      ],
      [
        "Y",
        "es"
      ],
      [
        "a",
        "in"
      ],
      [
        "b",
        "y"
      ],
      [
        "c",
        "ou"
      ],
      [
        "c",
        "ar"
      ],
      [
        "c",
        "our"
      ],
      [
        "e",
        "y"
      ],
      [
        "e",
        "st"
      ],
      [
        "f",
        "i"
      ],
      [
        "f",
        "un"
      ],
      [
        "g",
        "l"
      ],
      [
        "h",
        "as"
      ],
      [
        "i",
        "st"
      ],
      [
        "l",
        "an"
      ],
      [
        "n",
        "er"
      ],
      [
        "p",
        "art"
      ],
      [
        "r",
        "ing"
      ],
      [
        "s",
        "on"
      ],
      [
        "u",
        "nd"
      ],
      [
        "th",
        "ought"
      ],
      [
        "en",
        "ce"
      ],
      [
        "it",
        "e"
      ],
      [
        "it",
        "s"
      ],
      [
        "li",
        "e"
      ],
      [
        "ac",
        "t"
      ],
      [
        "ver",
        "y"
      ],
      [
        "ry",
        "ing"
      ],
      [
        "He",
        "y"
      ],
      [
        "bi",
        "g"
      ],
      [
        "D",
        "o"
      ],
      [
        "I",
        "n"
      ],
      [
        "M",
        "ay"
      ],
      [
        "S",
        "he"
      ],
      [
        "U",
        "h"
      ],
      [
        "c",
        "l"
      ],
      [
        "c",
        "r"
      ],
      [
        "c",
        "all"
      ],
      [
        "e",
        "e"
      ],
      [
        "f",
        "o"
      ],
      [
        "f",
        "ir"
      ],
      [
        "h",
        "and"
      ],
      [
        "i",
        "a"
      ],
      [
        "i",
        "ous"
      ],
      [
        "m",
        "on"
      ],
      [
        "o",
        "l"
      ],
      [
        "o",
        "ther"
      ],
      [
        "p",
        "or"
      ],
      [
        "s",
        "w"
      ],
      [
        "t",
        "ing"
      ],
      [
        "t",
        "ra"
      ],
      [
        "w",
        "an"
      ],
      [
        "w",
        "on"
      ],
      [
        "y",
        "eah"
      ],
      [
        "y",
        "ear"
      ],
      [
        "er",
        "s"
      ],
      [
        "er",
        "t"
      ],
      [
        "the",
        "n"
      ],
      [
        "the",
        "ir"
      ],
      [
        "st",
        "ill"
      ],
      [
        "ar",
        "ound"
      ],
      [
        "se",
        "lf"
      ],
      [
        "as",
        "h"
      ],
      [
        "of",
        "fe"
      ],
      [
        "be",
        "ing"
      ],
      [
        "ke",
        "ep"
      ],
      [
        "li",
        "ve"
      ],
      [
        "al",
        "way"
      ],
      [
        "oo",
        "m"
      ],
      [
        "we",
        "ar"
      ],
      [
        "ab",
        "le"
      ],
      [
        "ne",
        "ver"
      ],
      [
        "op",
        "le"
      ],
      [
        "wor",
        "k"
      ],
      [
        "pe",
        "ople"
      ],
      [
        "orn",
        "ing"
      ],
      [
        "min",
        "ut"
      ],
      [
        "tt",
        "y"
      ],
      [
        "wa",
        "it"
      ],
      [
        "Be",
        "cause"
      ],
      [
        "cour",
        "se"
      ],
      [
        "May",
        "be"
      ],
      [
        "wan",
        "na"
      ],
      [
        "offe",
        "e"
      ],
      [
        "alway",
        "s"
      ],
      [
        "-",
        "-"
      ],
      [
        "B",
        "er"
      ],
      [
        "I",
        "f"
      ],
      [
        "N",
        "oo"
      ],
      [
        "O",
        "f"
      ],
      [
        "O",
        "n"
      ],
      [
        "R",
        "e"
      ],
      [
        "R",
        "o"
      ],
      [
        "a",
        "go"
      ],
      [
        "a",
        "ch"
      ],
      [
        "c",
        "le"
      ],
      [
        "c",
        "offee"
      ],
      [
        "d",
        "in"
      ],
      [
        "d",
        "er"
      ],
      [
        "d",
        "et"
      ],
      [
        "e",
        "k"
      ],
      [
        "g",
        "r"
      ],
      [
        "h",
        "our"
      ],
      [
        "i",
        "g"
      ],
      [
        "i",
        "es"
      ],
      [
        "k",
        "ind"
      ],
      [
        "o",
        "ld"
      ],
      [
        "o",
        "ver"
      ],
      [
        "o",
        "kay"
      ],
      [
        "p",
        "s"
      ],
      [
        "p",
        "ic"
      ],
      [
        "r",
        "on"
      ],
      [
        "r",
        "oom"
      ],
      [
        "s",
        "en"
      ],
      [
        "s",
        "li"
      ],
      [
        "t",
        "ri"
      ],
      [
        "t",
        "ter"
      ],
      [
        "t",
        "wo"
      ],
      [
        "t",
        "rying"
      ],
      [
        "Õ",
        "s"
      ],
      [
        "th",
        "ose"
      ],
      [
        "on",
        "ly"
      ],
      [
        "re",
        "d"
      ],
      [
        "re",
        "s"
      ],
      [
        "the",
        "se"
      ],
      [
        "st",
        "and"
      ],
      [
        "en",
        "jo"
      ],
      [
        "se",
        "d"
      ],
      [
        "le",
        "m"
      ],
      [
        "as",
        "k"
      ],
      [
        "as",
        "s"
      ],
      [
        "wh",
        "ere"
      ],
      [
        "id",
        "e"
      ],
      [
        "ab",
        "ly"
      ],
      [
        "ir",
        "d"
      ],
      [
        "No",
        "t"
      ],
      [
        "Wh",
        "en"
      ],
      [
        "na",
        "det"
      ],
      [
        "Th",
        "ere"
      ],
      [
        "Th",
        "ank"
      ],
      [
        "mo",
        "st"
      ],
      [
        "ne",
        "ed"
      ],
      [
        "get",
        "ting"
      ],
      [
        "wor",
        "d"
      ],
      [
        "lf",
        "riend"
      ],
      [
        "did",
        "n"
      ],
      [
        "pre",
        "tty"
      ],
      [
        "ak",
        "ing"
      ],
      [
        "gir",
        "l"
      ],
      [
        "gir",
        "lfriend"
      ],
      [
        "pp",
        "en"
      ],
      [
        "sc",
        "i"
      ],
      [
        "prob",
        "lem"
      ],
      [
        "prob",
        "ably"
      ],
      [
        "ga",
        "me"
      ],
      [
        "und",
        "er"
      ],
      [
        "fir",
        "st"
      ],
      [
        "Ber",
        "nadet"
      ],
      [
        "enjo",
        "y"
      ],
      [
        "Bernadet",
        "te"
      ],
      [
        "?",
        "!"
      ],
      [
        "A",
        "h"
      ],
      [
        "B",
        "lan"
      ],
      [
        "H",
        "a"
      ],
      [
        "J",
        "an"
      ],
      [
        "J",
        "ust"
      ],
      [
        "L",
        "o"
      ],
      [
        "P",
        "r"
      ],
      [
        "a",
        "per"
      ],
      [
        "b",
        "a"
      ],
      [
        "b",
        "er"
      ],
      [
        "b",
        "re"
      ],
      [
        "b",
        "le"
      ],
      [
        "c",
        "ed"
      ],
      [
        "d",
        "i"
      ],
      [
        "d",
        "ing"
      ],
      [
        "d",
        "is"
      ],
      [
        "e",
        "w"
      ],
      [
        "e",
        "le"
      ],
      [
        "e",
        "ven"
      ],
      [
        "f",
        "a"
      ],
      [
        "f",
        "f"
      ],
      [
        "f",
        "l"
      ],
      [
        "f",
        "ul"
      ],
      [
        "i",
        "ld"
      ],
      [
        "l",
        "er"
      ],
      [
        "m",
        "en"
      ],
      [
        "m",
        "orning"
      ],
      [
        "o",
        "m"
      ],
      [
        "p",
        "r"
      ],
      [
        "p",
        "le"
      ],
      [
        "r",
        "n"
      ],
      [
        "s",
        "y"
      ],
      [
        "s",
        "up"
      ],
      [
        "s",
        "how"
      ],
      [
        "s",
        "ide"
      ],
      [
        "t",
        "r"
      ],
      [
        "u",
        "re"
      ],
      [
        "w",
        "ard"
      ],
      [
        "y",
        "es"
      ],
      [
        "th",
        "r"
      ],
      [
        "th",
        "s"
      ],
      [
        "th",
        "an"
      ],
      [
        "th",
        "ird"
      ],
      [
        "ou",
        "se"
      ],
      [
        "in",
        "v"
      ],
      [
        "in",
        "st"
      ],
      [
        "an",
        "e"
      ],
      [
        "an",
        "g"
      ],
      [
        "on",
        "ce"
      ],
      [
        "at",
        "ing"
      ],
      [
        "at",
        "ed"
      ],
      [
        "to",
        "ld"
      ],
      [
        "en",
        "ough"
      ],
      [
        "ar",
        "n"
      ],
      [
        "se",
        "s"
      ],
      [
        "no",
        "thing"
      ],
      [
        "le",
        "g"
      ],
      [
        "le",
        "s"
      ],
      [
        "he",
        "l"
      ],
      [
        "he",
        "ar"
      ],
      [
        "ke",
        "y"
      ],
      [
        "li",
        "fe"
      ],
      [
        "ha",
        "ppen"
      ],
      [
        "oo",
        "l"
      ],
      [
        "ri",
        "ed"
      ],
      [
        "ac",
        "tu"
      ],
      [
        "id",
        "ea"
      ],
      [
        "lo",
        "t"
      ],
      [
        "fe",
        "el"
      ],
      [
        "op",
        "en"
      ],
      [
        "some",
        "one"
      ],
      [
        "tu",
        "rn"
      ],
      [
        "el",
        "se"
      ],
      [
        "gi",
        "ve"
      ],
      [
        "sto",
        "ry"
      ],
      [
        "wo",
        "man"
      ],
      [
        "ever",
        "y"
      ],
      [
        "lie",
        "ve"
      ],
      [
        "cl",
        "u"
      ],
      [
        "fo",
        "re"
      ],
      [
        "Re",
        "ally"
      ],
      [
        "Ro",
        "ss"
      ],
      [
        "Jan",
        "ice"
      ],
      [
        "!",
        "!"
      ],
      [
        "<",
        "/"
      ],
      [
        "A",
        "l"
      ],
      [
        "C",
        "an"
      ],
      [
        "E",
        "x"
      ],
      [
        "I",
        "s"
      ],
      [
        "M",
        "y"
      ],
      [
        "M",
        "ar"
      ],
      [
        "R",
        "a"
      ],
      [
        "S",
        "t"
      ],
      [
        "W",
        "ow"
      ],
      [
        "a",
        "w"
      ],
      [
        "b",
        "r"
      ],
      [
        "b",
        "ook"
      ],
      [
        "c",
        "i"
      ],
      [
        "c",
        "re"
      ],
      [
        "c",
        "as"
      ],
      [
        "c",
        "ut"
      ],
      [
        "d",
        "y"
      ],
      [
        "d",
        "um"
      ],
      [
        "d",
        "ate"
      ],
      [
        "e",
        "i"
      ],
      [
        "e",
        "m"
      ],
      [
        "f",
        "t"
      ],
      [
        "f",
        "ic"
      ],
      [
        "f",
        "ast"
      ],
      [
        "f",
        "ood"
      ],
      [
        "g",
        "le"
      ],
      [
        "h",
        "op"
      ],
      [
        "h",
        "uh"
      ],
      [
        "h",
        "ouse"
      ],
      [
        "i",
        "m"
      ],
      [
        "i",
        "ve"
      ],
      [
        "i",
        "ly"
      ],
      [
        "k",
        "ing"
      ],
      [
        "l",
        "ing"
      ],
      [
        "l",
        "ast"
      ],
      [
        "m",
        "s"
      ],
      [
        "m",
        "is"
      ],
      [
        "m",
        "ar"
      ],
      [
        "m",
        "ad"
      ],
      [
        "m",
        "ag"
      ],
      [
        "p",
        "u"
      ],
      [
        "p",
        "en"
      ],
      [
        "p",
        "ant"
      ],
      [
        "p",
        "ie"
      ],
      [
        "p",
        "ick"
      ],
      [
        "p",
        "aper"
      ],
      [
        "r",
        "s"
      ],
      [
        "s",
        "er"
      ],
      [
        "s",
        "ing"
      ],
      [
        "s",
        "ound"
      ],
      [
        "t",
        "en"
      ],
      [
        "t",
        "ru"
      ],
      [
        "u",
        "ck"
      ],
      [
        "v",
        "i"
      ],
      [
        "w",
        "ent"
      ],
      [
        "w",
        "atch"
      ],
      [
        "th",
        "re"
      ],
      [
        "th",
        "ank"
      ],
      [
        "in",
        "to"
      ],
      [
        "in",
        "it"
      ],
      [
        "an",
        "ce"
      ],
      [
        "er",
        "y"
      ],
      [
        "st",
        "ic"
      ],
      [
        "ar",
        "y"
      ],
      [
        "no",
        "body"
      ],
      [
        "he",
        "e"
      ],
      [
        "be",
        "er"
      ],
      [
        "be",
        "tter"
      ],
      [
        "be",
        "lieve"
      ],
      [
        "li",
        "c"
      ],
      [
        "li",
        "st"
      ],
      [
        "ha",
        "m"
      ],
      [
        "ha",
        "lf"
      ],
      [
        "wh",
        "ile"
      ],
      [
        "ch",
        "o"
      ],
      [
        "ch",
        "ar"
      ],
      [
        "ic",
        "al"
      ],
      [
        "we",
        "ek"
      ],
      [
        "am",
        "p"
      ],
      [
        "Th",
        "is"
      ],
      [
        "mo",
        "ment"
      ],
      [
        "ca",
        "me"
      ],
      [
        "thing",
        "s"
      ],
      [
        "de",
        "al"
      ],
      [
        "fe",
        "w"
      ],
      [
        "gu",
        "ess"
      ],
      [
        "think",
        "ing"
      ],
      [
        "ag",
        "e"
      ],
      [
        "ag",
        "ain"
      ],
      [
        "per",
        "son"
      ],
      [
        "wor",
        "ld"
      ],
      [
        "talk",
        "ing"
      ],
      [
        "ck",
        "s"
      ],
      [
        "bo",
        "x"
      ],
      [
        "po",
        "in"
      ],
      [
        "po",
        "st"
      ],
      [
        "ex",
        "c"
      ],
      [
        "sto",
        "p"
      ],
      [
        "sp",
        "ace"
      ],
      [
        "new",
        "s"
      ],
      [
        "guy",
        "s"
      ],
      [
        "ation",
        "s"
      ],
      [
        "stu",
        "ff"
      ],
      [
        "start",
        "ing"
      ],
      [
        "does",
        "n"
      ],
      [
        "Jo",
        "e"
      ],
      [
        "Jo",
        "ey"
      ],
      [
        "fi",
        "ve"
      ],
      [
        "cr",
        "amp"
      ],
      [
        "ious",
        "ly"
      ],
      [
        "por",
        "t"
      ],
      [
        "won",
        "der"
      ],
      [
        "year",
        "s"
      ],
      [
        "minut",
        "e"
      ],
      [
        "Noo",
        "o"
      ],
      [
        "pic",
        "tu"
      ],
      [
        "sci",
        "ence"
      ],
      [
        "Blan",
        "che"
      ],
      [
        "actu",
        "ally"
      ],
      [
        "ei",
        "ther"
      ],
      [
        "pant",
        "s"
      ],
      [
        ",",
        "\""
      ],
      [
        "1",
        "2"
      ],
      [
        "A",
        "n"
      ],
      [
        "A",
        "s"
      ],
      [
        "A",
        "re"
      ],
      [
        "A",
        "my"
      ],
      [
        "C",
        "a"
      ],
      [
        "C",
        "ar"
      ],
      [
        "D",
        "r"
      ],
      [
        "G",
        "od"
      ],
      [
        "J",
        "ew"
      ],
      [
        "K",
        "ind"
      ],
      [
        "L",
        "ook"
      ],
      [
        "M",
        "om"
      ],
      [
        "M",
        "rs"
      ],
      [
        "O",
        "oh"
      ],
      [
        "P",
        "hee"
      ],
      [
        "R",
        "ac"
      ],
      [
        "S",
        "p"
      ],
      [
        "S",
        "ee"
      ],
      [
        "W",
        "ol"
      ],
      [
        "a",
        "p"
      ],
      [
        "a",
        "li"
      ],
      [
        "b",
        "l"
      ],
      [
        "b",
        "s"
      ],
      [
        "b",
        "it"
      ],
      [
        "b",
        "and"
      ],
      [
        "b",
        "al"
      ],
      [
        "b",
        "ir"
      ],
      [
        "b",
        "us"
      ],
      [
        "b",
        "un"
      ],
      [
        "b",
        "ad"
      ],
      [
        "b",
        "ra"
      ],
      [
        "b",
        "ur"
      ],
      [
        "b",
        "itch"
      ],
      [
        "c",
        "er"
      ],
      [
        "c",
        "ent"
      ],
      [
        "c",
        "are"
      ],
      [
        "c",
        "orn"
      ],
      [
        "c",
        "ool"
      ],
      [
        "d",
        "r"
      ],
      [
        "d",
        "en"
      ],
      [
        "d",
        "ea"
      ],
      [
        "f",
        "in"
      ],
      [
        "f",
        "er"
      ],
      [
        "f",
        "re"
      ],
      [
        "f",
        "am"
      ],
      [
        "f",
        "lo"
      ],
      [
        "f",
        "act"
      ],
      [
        "g",
        "n"
      ],
      [
        "g",
        "y"
      ],
      [
        "g",
        "ar"
      ],
      [
        "g",
        "one"
      ],
      [
        "g",
        "ge"
      ],
      [
        "h",
        "y"
      ],
      [
        "h",
        "us"
      ],
      [
        "h",
        "ind"
      ],
      [
        "h",
        "ur"
      ],
      [
        "h",
        "ang"
      ],
      [
        "i",
        "ment"
      ],
      [
        "k",
        "id"
      ],
      [
        "k",
        "ick"
      ],
      [
        "l",
        "s"
      ],
      [
        "l",
        "t"
      ],
      [
        "l",
        "as"
      ],
      [
        "l",
        "ate"
      ],
      [
        "m",
        "a"
      ],
      [
        "m",
        "b"
      ],
      [
        "n",
        "t"
      ],
      [
        "n",
        "ed"
      ],
      [
        "n",
        "ts"
      ],
      [
        "p",
        "h"
      ],
      [
        "p",
        "end"
      ],
      [
        "r",
        "is"
      ],
      [
        "r",
        "up"
      ],
      [
        "s",
        "ar"
      ],
      [
        "s",
        "mo"
      ],
      [
        "s",
        "ad"
      ],
      [
        "s",
        "ist"
      ],
      [
        "t",
        "y"
      ],
      [
        "t",
        "ou"
      ],
      [
        "t",
        "ic"
      ],
      [
        "t",
        "ion"
      ],
      [
        "t",
        "ast"
      ],
      [
        "t",
        "able"
      ],
      [
        "u",
        "es"
      ],
      [
        "v",
        "y"
      ],
      [
        "v",
        "an"
      ],
      [
        "v",
        "ent"
      ],
      [
        "w",
        "alk"
      ],
      [
        "ou",
        "ble"
      ],
      [
        "in",
        "ter"
      ],
      [
        "in",
        "side"
      ],
      [
        "at",
        "er"
      ],
      [
        "at",
        "ter"
      ],
      [
        "re",
        "at"
      ],
      [
        "re",
        "al"
      ],
      [
        "re",
        "et"
      ],
      [
        "re",
        "ad"
      ],
      [
        "st",
        "ru"
      ],
      [
        "en",
        "ny"
      ],
      [
        "it",
        "y"
      ],
      [
        "it",
        "z"
      ],
      [
        "it",
        "ing"
      ],
      [
        "me",
        "et"
      ],
      [
        "me",
        "ant"
      ],
      [
        "se",
        "t"
      ],
      [
        "se",
        "x"
      ],
      [
        "se",
        "con"
      ],
      [
        "or",
        "d"
      ],
      [
        "le",
        "t"
      ],
      [
        "le",
        "ft"
      ],
      [
        "as",
        "on"
      ],
      [
        "as",
        "ked"
      ],
      [
        "of",
        "es"
      ],
      [
        "he",
        "a"
      ],
      [
        "he",
        "y"
      ],
      [
        "he",
        "ard"
      ],
      [
        "he",
        "ad"
      ],
      [
        "and",
        "ler"
      ],
      [
        "be",
        "d"
      ],
      [
        "be",
        "fore"
      ],
      [
        "be",
        "hind"
      ],
      [
        "ke",
        "t"
      ],
      [
        "li",
        "ar"
      ],
      [
        "li",
        "ght"
      ],
      [
        "li",
        "ving"
      ],
      [
        "ha",
        "ir"
      ],
      [
        "ere",
        "d"
      ],
      [
        "ow",
        "itz"
      ],
      [
        "al",
        "one"
      ],
      [
        "ld",
        "on"
      ],
      [
        "ri",
        "b"
      ],
      [
        "ri",
        "st"
      ],
      [
        "was",
        "n"
      ],
      [
        "ea",
        "d"
      ],
      [
        "ea",
        "ch"
      ],
      [
        "for",
        "t"
      ],
      [
        "do",
        "ing"
      ],
      [
        "ent",
        "ist"
      ],
      [
        "with",
        "out"
      ],
      [
        "You",
        "r"
      ],
      [
        "na",
        "ked"
      ],
      [
        "your",
        "self"
      ],
      [
        "mo",
        "m"
      ],
      [
        "us",
        "h"
      ],
      [
        "un",
        "k"
      ],
      [
        "use",
        "d"
      ],
      [
        "de",
        "v"
      ],
      [
        "de",
        "pend"
      ],
      [
        "su",
        "r"
      ],
      [
        "su",
        "ch"
      ],
      [
        "su",
        "gge"
      ],
      [
        "ti",
        "ve"
      ],
      [
        "get",
        "s"
      ],
      [
        "man",
        "y"
      ],
      [
        "per",
        "iment"
      ],
      [
        "sa",
        "me"
      ],
      [
        "con",
        "y"
      ],
      [
        "want",
        "s"
      ],
      [
        "pe",
        "e"
      ],
      [
        "ss",
        "i"
      ],
      [
        "ss",
        "ing"
      ],
      [
        "mean",
        "s"
      ],
      [
        "look",
        "ing"
      ],
      [
        "any",
        "thing"
      ],
      [
        "any",
        "more"
      ],
      [
        "too",
        "k"
      ],
      [
        "com",
        "m"
      ],
      [
        "com",
        "p"
      ],
      [
        "com",
        "ing"
      ],
      [
        "bo",
        "y"
      ],
      [
        "po",
        "ssi"
      ],
      [
        "um",
        "m"
      ],
      [
        "um",
        "ber"
      ],
      [
        "ho",
        "me"
      ],
      [
        "qu",
        "est"
      ],
      [
        "ex",
        "periment"
      ],
      [
        "gi",
        "ven"
      ],
      [
        "pl",
        "an"
      ],
      [
        "pl",
        "ay"
      ],
      [
        "pre",
        "s"
      ],
      [
        "sto",
        "re"
      ],
      [
        "say",
        "s"
      ],
      [
        "say",
        "ing"
      ],
      [
        "who",
        "le"
      ],
      [
        "So",
        "me"
      ],
      [
        "Ch",
        "andler"
      ],
      [
        "bu",
        "ild"
      ],
      [
        "sit",
        "ive"
      ],
      [
        "How",
        "ard"
      ],
      [
        "des",
        "ert"
      ],
      [
        "friend",
        "s"
      ],
      [
        "atch",
        "ing"
      ],
      [
        "lea",
        "se"
      ],
      [
        "lea",
        "ve"
      ],
      [
        "cou",
        "ch"
      ],
      [
        "cou",
        "ple"
      ],
      [
        "fun",
        "ny"
      ],
      [
        "part",
        "y"
      ],
      [
        "Do",
        "es"
      ],
      [
        "She",
        "ldon"
      ],
      [
        "call",
        "ed"
      ],
      [
        "mon",
        "ths"
      ],
      [
        "mon",
        "key"
      ],
      [
        "ert",
        "ain"
      ],
      [
        "minut",
        "es"
      ],
      [
        "din",
        "ner"
      ],
      [
        "sen",
        "se"
      ],
      [
        "word",
        "s"
      ],
      [
        "under",
        "stand"
      ],
      [
        "bre",
        "ak"
      ],
      [
        "sup",
        "p"
      ],
      [
        "thr",
        "ow"
      ],
      [
        "inst",
        "ead"
      ],
      [
        "turn",
        "s"
      ],
      [
        "Ex",
        "c"
      ],
      [
        "Ra",
        "j"
      ],
      [
        "ci",
        "al"
      ],
      [
        "hop",
        "e"
      ],
      [
        "mar",
        "ried"
      ],
      [
        "pen",
        "is"
      ],
      [
        "uck",
        "y"
      ],
      [
        "thre",
        "e"
      ],
      [
        "init",
        "i"
      ],
      [
        "pictu",
        "res"
      ],
      [
        "Phee",
        "bs"
      ],
      [
        "Rac",
        "hel"
      ],
      [
        "Wol",
        "owitz"
      ],
      [
        "bal",
        "cony"
      ],
      [
        "bir",
        "th"
      ],
      [
        "hus",
        "band"
      ],
      [
        "sist",
        "er"
      ],
      [
        "secon",
        "d"
      ],
      [
        "ofes",
        "sor"
      ],
      [
        "sugge",
        "st"
      ],
      [
        "quest",
        "ion"
      ],
      [
        "\"",
        "."
      ],
      [
        "'",
        "."
      ],
      [
        "?",
        "\""
      ],
      [
        "A",
        "r"
      ],
      [
        "A",
        "ny"
      ],
      [
        "B",
        "on"
      ],
      [
        "C",
        "o"
      ],
      [
        "D",
        "id"
      ],
      [
        "D",
        "el"
      ],
      [
        "E",
        "m"
      ],
      [
        "F",
        "r"
      ],
      [
        "F",
        "or"
      ],
      [
        "G",
        "e"
      ],
      [
        "G",
        "o"
      ],
      [
        "G",
        "ood"
      ],
      [
        "G",
        "reat"
      ],
      [
        "H",
        "i"
      ],
      [
        "H",
        "is"
      ],
      [
        "H",
        "ere"
      ],
      [
        "H",
        "ell"
      ],
      [
        "J",
        "u"
      ],
      [
        "K",
        "rist"
      ],
      [
        "L",
        "i"
      ],
      [
        "L",
        "et"
      ],
      [
        "L",
        "ane"
      ],
      [
        "L",
        "ord"
      ],
      [
        "M",
        "a"
      ],
      [
        "M",
        "e"
      ],
      [
        "M",
        "orning"
      ],
      [
        "N",
        "ew"
      ],
      [
        "O",
        "b"
      ],
      [
        "O",
        "x"
      ],
      [
        "P",
        "l"
      ],
      [
        "P",
        "ho"
      ],
      [
        "P",
        "enny"
      ],
      [
        "R",
        "ed"
      ],
      [
        "R",
        "ight"
      ],
      [
        "S",
        "a"
      ],
      [
        "S",
        "er"
      ],
      [
        "S",
        "ar"
      ],
      [
        "S",
        "tu"
      ],
      [
        "S",
        "ound"
      ],
      [
        "S",
        "ure"
      ],
      [
        "T",
        "o"
      ],
      [
        "T",
        "od"
      ],
      [
        "T",
        "ues"
      ],
      [
        "T",
        "rib"
      ],
      [
        "V",
        "ery"
      ],
      [
        "a",
        "f"
      ],
      [
        "a",
        "h"
      ],
      [
        "a",
        "ve"
      ],
      [
        "a",
        "ut"
      ],
      [
        "a",
        "ver"
      ],
      [
        "a",
        "part"
      ],
      [
        "b",
        "ro"
      ],
      [
        "b",
        "ag"
      ],
      [
        "b",
        "ought"
      ],
      [
        "c",
        "at"
      ],
      [
        "c",
        "en"
      ],
      [
        "c",
        "ha"
      ],
      [
        "c",
        "id"
      ],
      [
        "c",
        "am"
      ],
      [
        "c",
        "lo"
      ],
      [
        "c",
        "us"
      ],
      [
        "c",
        "tu"
      ],
      [
        "c",
        "ous"
      ],
      [
        "c",
        "ked"
      ],
      [
        "c",
        "ess"
      ],
      [
        "c",
        "ket"
      ],
      [
        "c",
        "tive"
      ],
      [
        "d",
        "a"
      ],
      [
        "d",
        "u"
      ],
      [
        "d",
        "le"
      ],
      [
        "d",
        "ir"
      ],
      [
        "d",
        "ro"
      ],
      [
        "d",
        "are"
      ],
      [
        "d",
        "if"
      ],
      [
        "d",
        "ie"
      ],
      [
        "d",
        "res"
      ],
      [
        "d",
        "ance"
      ],
      [
        "e",
        "g"
      ],
      [
        "e",
        "at"
      ],
      [
        "e",
        "be"
      ],
      [
        "e",
        "el"
      ],
      [
        "e",
        "ct"
      ],
      [
        "f",
        "ar"
      ],
      [
        "f",
        "all"
      ],
      [
        "f",
        "ight"
      ],
      [
        "f",
        "ie"
      ],
      [
        "f",
        "ur"
      ],
      [
        "f",
        "ound"
      ],
      [
        "f",
        "la"
      ],
      [
        "f",
        "ash"
      ],
      [
        "f",
        "ron"
      ],
      [
        "g",
        "s"
      ],
      [
        "g",
        "er"
      ],
      [
        "g",
        "en"
      ],
      [
        "g",
        "if"
      ],
      [
        "g",
        "gl"
      ],
      [
        "h",
        "id"
      ],
      [
        "h",
        "un"
      ],
      [
        "i",
        "o"
      ],
      [
        "i",
        "x"
      ],
      [
        "i",
        "z"
      ],
      [
        "i",
        "re"
      ],
      [
        "i",
        "ch"
      ],
      [
        "i",
        "ate"
      ],
      [
        "i",
        "pp"
      ],
      [
        "k",
        "itch"
      ],
      [
        "k",
        "ward"
      ],
      [
        "l",
        "ar"
      ],
      [
        "l",
        "and"
      ],
      [
        "l",
        "ut"
      ],
      [
        "l",
        "ad"
      ],
      [
        "l",
        "ine"
      ],
      [
        "m",
        "m"
      ],
      [
        "m",
        "ou"
      ],
      [
        "m",
        "ing"
      ],
      [
        "m",
        "or"
      ],
      [
        "m",
        "art"
      ],
      [
        "m",
        "ach"
      ],
      [
        "m",
        "aking"
      ],
      [
        "n",
        "ing"
      ],
      [
        "n",
        "et"
      ],
      [
        "n",
        "ice"
      ],
      [
        "n",
        "umber"
      ],
      [
        "n",
        "ipp"
      ],
      [
        "o",
        "k"
      ],
      [
        "o",
        "lo"
      ],
      [
        "p",
        "in"
      ],
      [
        "p",
        "ing"
      ],
      [
        "p",
        "ri"
      ],
      [
        "p",
        "et"
      ],
      [
        "p",
        "are"
      ],
      [
        "p",
        "op"
      ],
      [
        "p",
        "ill"
      ],
      [
        "p",
        "ite"
      ],
      [
        "p",
        "lease"
      ],
      [
        "r",
        "it"
      ],
      [
        "s",
        "l"
      ],
      [
        "s",
        "is"
      ],
      [
        "s",
        "ch"
      ],
      [
        "s",
        "we"
      ],
      [
        "s",
        "wi"
      ],
      [
        "s",
        "now"
      ],
      [
        "s",
        "end"
      ],
      [
        "t",
        "a"
      ],
      [
        "t",
        "it"
      ],
      [
        "t",
        "aking"
      ],
      [
        "u",
        "ally"
      ],
      [
        "u",
        "ce"
      ],
      [
        "v",
        "or"
      ],
      [
        "v",
        "id"
      ],
      [
        "v",
        "ie"
      ],
      [
        "v",
        "ous"
      ],
      [
        "v",
        "iously"
      ],
      [
        "w",
        "n"
      ],
      [
        "w",
        "er"
      ],
      [
        "w",
        "ast"
      ],
      [
        "x",
        "t"
      ],
      [
        "y",
        "a"
      ],
      [
        "y",
        "ing"
      ],
      [
        "z",
        "z"
      ],
      [
        "z",
        "er"
      ],
      [
        "z",
        "ing"
      ],
      [
        "Õ",
        "t"
      ],
      [
        "th",
        "ough"
      ],
      [
        "ou",
        "p"
      ],
      [
        "in",
        "al"
      ],
      [
        "in",
        "clu"
      ],
      [
        "in",
        "cess"
      ],
      [
        "an",
        "i"
      ],
      [
        "an",
        "ge"
      ],
      [
        "er",
        "cial"
      ],
      [
        "on",
        "s"
      ],
      [
        "at",
        "ic"
      ],
      [
        "re",
        "se"
      ],
      [
        "re",
        "su"
      ],
      [
        "re",
        "gu"
      ],
      [
        "re",
        "ason"
      ],
      [
        "the",
        "or"
      ],
      [
        "ing",
        "s"
      ],
      [
        "to",
        "ile"
      ],
      [
        "st",
        "r"
      ],
      [
        "st",
        "er"
      ],
      [
        "st",
        "ar"
      ],
      [
        "st",
        "ay"
      ],
      [
        "st",
        "reet"
      ],
      [
        "st",
        "atic"
      ],
      [
        "it",
        "ed"
      ],
      [
        "it",
        "ion"
      ],
      [
        "it",
        "Õs"
      ],
      [
        "is",
        "n"
      ],
      [
        "is",
        "s"
      ],
      [
        "me",
        "s"
      ],
      [
        "me",
        "at"
      ],
      [
        "ar",
        "ch"
      ],
      [
        "se",
        "en"
      ],
      [
        "se",
        "ven"
      ],
      [
        "or",
        "ge"
      ],
      [
        "or",
        "ig"
      ],
      [
        "ve",
        "d"
      ],
      [
        "ve",
        "ment"
      ],
      [
        "le",
        "d"
      ],
      [
        "le",
        "tter"
      ],
      [
        "le",
        "arn"
      ],
      [
        "as",
        "y"
      ],
      [
        "be",
        "st"
      ],
      [
        "be",
        "am"
      ],
      [
        "be",
        "come"
      ],
      [
        "go",
        "d"
      ],
      [
        "go",
        "es"
      ],
      [
        "that",
        "Õs"
      ],
      [
        "ha",
        "ven"
      ],
      [
        "ha",
        "ving"
      ],
      [
        "all",
        "ow"
      ],
      [
        "wh",
        "ose"
      ],
      [
        "ow",
        "er"
      ],
      [
        "ch",
        "ick"
      ],
      [
        "al",
        "most"
      ],
      [
        "ght",
        "ly"
      ],
      [
        "ic",
        "a"
      ],
      [
        "my",
        "self"
      ],
      [
        "so",
        "lut"
      ],
      [
        "ac",
        "ter"
      ],
      [
        "ac",
        "cou"
      ],
      [
        "ac",
        "cid"
      ],
      [
        "co",
        "p"
      ],
      [
        "co",
        "st"
      ],
      [
        "co",
        "ca"
      ],
      [
        "co",
        "stu"
      ],
      [
        "co",
        "late"
      ],
      [
        "for",
        "d"
      ],
      [
        "for",
        "getting"
      ],
      [
        "for",
        "ward"
      ],
      [
        "do",
        "g"
      ],
      [
        "ab",
        "l"
      ],
      [
        "ab",
        "y"
      ],
      [
        "et",
        "y"
      ],
      [
        "ir",
        "g"
      ],
      [
        "ir",
        "t"
      ],
      [
        "No",
        "pe"
      ],
      [
        "ent",
        "ire"
      ],
      [
        "Wh",
        "ere"
      ],
      [
        "don",
        "Õt"
      ],
      [
        "na",
        "me"
      ],
      [
        "na",
        "med"
      ],
      [
        "od",
        "el"
      ],
      [
        "up",
        "set"
      ],
      [
        "up",
        "pet"
      ],
      [
        "ant",
        "e"
      ],
      [
        "mo",
        "ther"
      ],
      [
        "mo",
        "ho"
      ],
      [
        "us",
        "er"
      ],
      [
        "un",
        "t"
      ],
      [
        "un",
        "ti"
      ],
      [
        "un",
        "cle"
      ],
      [
        "ca",
        "ke"
      ],
      [
        "ca",
        "stic"
      ],
      [
        "ne",
        "xt"
      ],
      [
        "ard",
        "ly"
      ],
      [
        "de",
        "st"
      ],
      [
        "de",
        "pres"
      ],
      [
        "su",
        "b"
      ],
      [
        "fe",
        "ct"
      ],
      [
        "op",
        "port"
      ],
      [
        "some",
        "body"
      ],
      [
        "gu",
        "e"
      ],
      [
        "gu",
        "ard"
      ],
      [
        "got",
        "ta"
      ],
      [
        "That",
        "Õs"
      ],
      [
        "sa",
        "ve"
      ],
      [
        "see",
        "med"
      ],
      [
        "con",
        "te"
      ],
      [
        "hi",
        "ll"
      ],
      [
        "hi",
        "gh"
      ],
      [
        "ment",
        "s"
      ],
      [
        "te",
        "stic"
      ],
      [
        "pro",
        "mis"
      ],
      [
        "bi",
        "ll"
      ],
      [
        "bi",
        "lit"
      ],
      [
        "bi",
        "olo"
      ],
      [
        "bi",
        "ani"
      ],
      [
        "look",
        "s"
      ],
      [
        "any",
        "way"
      ],
      [
        "com",
        "ic"
      ],
      [
        "com",
        "ple"
      ],
      [
        "com",
        "fort"
      ],
      [
        "love",
        "d"
      ],
      [
        "time",
        "s"
      ],
      [
        "bo",
        "t"
      ],
      [
        "um",
        "p"
      ],
      [
        "ho",
        "ld"
      ],
      [
        "qu",
        "ite"
      ],
      [
        "off",
        "ice"
      ],
      [
        "che",
        "w"
      ],
      [
        "che",
        "ck"
      ],
      [
        "ex",
        "tra"
      ],
      [
        "gi",
        "ving"
      ],
      [
        "pl",
        "ace"
      ],
      [
        "pre",
        "gn"
      ],
      [
        "ru",
        "b"
      ],
      [
        "sh",
        "irt"
      ],
      [
        "sp",
        "ent"
      ],
      [
        "sp",
        "ell"
      ],
      [
        "ear",
        "ring"
      ],
      [
        "Ch",
        "an"
      ],
      [
        "il",
        "ing"
      ],
      [
        "day",
        "s"
      ],
      [
        "find",
        "s"
      ],
      [
        "ga",
        "ve"
      ],
      [
        "stu",
        "dy"
      ],
      [
        "med",
        "iate"
      ],
      [
        "ct",
        "ed"
      ],
      [
        "des",
        "pite"
      ],
      [
        "la",
        "und"
      ],
      [
        "may",
        "be"
      ],
      [
        "take",
        "s"
      ],
      [
        "lea",
        "sed"
      ],
      [
        "long",
        "er"
      ],
      [
        "ey",
        "es"
      ],
      [
        "est",
        "abl"
      ],
      [
        "fi",
        "gu"
      ],
      [
        "gl",
        "ass"
      ],
      [
        "lan",
        "e"
      ],
      [
        "ner",
        "vous"
      ],
      [
        "thought",
        "ful"
      ],
      [
        "act",
        "ly"
      ],
      [
        "fo",
        "cus"
      ],
      [
        "hand",
        "s"
      ],
      [
        "sw",
        "er"
      ],
      [
        "sw",
        "itch"
      ],
      [
        "tra",
        "p"
      ],
      [
        "wear",
        "s"
      ],
      [
        "wear",
        "ing"
      ],
      [
        "work",
        "s"
      ],
      [
        "cle",
        "an"
      ],
      [
        "cle",
        "ar"
      ],
      [
        "din",
        "fast"
      ],
      [
        "gr",
        "ad"
      ],
      [
        "gr",
        "oup"
      ],
      [
        "hour",
        "s"
      ],
      [
        "ig",
        "n"
      ],
      [
        "sen",
        "sitive"
      ],
      [
        "sli",
        "ghtly"
      ],
      [
        "tri",
        "p"
      ],
      [
        "girl",
        "s"
      ],
      [
        "sci",
        "entist"
      ],
      [
        "enjoy",
        "ed"
      ],
      [
        "Ha",
        "ve"
      ],
      [
        "Lo",
        "ve"
      ],
      [
        "Pr",
        "ofessor"
      ],
      [
        "Pr",
        "incess"
      ],
      [
        "ba",
        "th"
      ],
      [
        "di",
        "ed"
      ],
      [
        "ele",
        "ss"
      ],
      [
        "fa",
        "ir"
      ],
      [
        "fl",
        "at"
      ],
      [
        "sy",
        "rup"
      ],
      [
        "tr",
        "ouble"
      ],
      [
        "thr",
        "ough"
      ],
      [
        "inv",
        "ol"
      ],
      [
        "hel",
        "p"
      ],
      [
        "happen",
        "s"
      ],
      [
        "happen",
        "ed"
      ],
      [
        "every",
        "one"
      ],
      [
        "aw",
        "kward"
      ],
      [
        "cas",
        "moho"
      ],
      [
        "dum",
        "bed"
      ],
      [
        "fic",
        "ul"
      ],
      [
        "mis",
        "s"
      ],
      [
        "mad",
        "e"
      ],
      [
        "mag",
        "ical"
      ],
      [
        "pu",
        "zz"
      ],
      [
        "ser",
        "ious"
      ],
      [
        "ser",
        "ies"
      ],
      [
        "sound",
        "s"
      ],
      [
        "tru",
        "cks"
      ],
      [
        "thank",
        "s"
      ],
      [
        "ham",
        "p"
      ],
      [
        "cho",
        "ice"
      ],
      [
        "char",
        "acter"
      ],
      [
        "poin",
        "t"
      ],
      [
        "exc",
        "ited"
      ],
      [
        "wonder",
        "ful"
      ],
      [
        "Ca",
        "use"
      ],
      [
        "Car",
        "ol"
      ],
      [
        "Jew",
        "ish"
      ],
      [
        "ap",
        "pro"
      ],
      [
        "bun",
        "ch"
      ],
      [
        "bra",
        "in"
      ],
      [
        "bitch",
        "in"
      ],
      [
        "corn",
        "er"
      ],
      [
        "dr",
        "ank"
      ],
      [
        "fer",
        "ring"
      ],
      [
        "fre",
        "aking"
      ],
      [
        "hur",
        "ry"
      ],
      [
        "kid",
        "s"
      ],
      [
        "las",
        "er"
      ],
      [
        "ph",
        "one"
      ],
      [
        "ris",
        "k"
      ],
      [
        "sar",
        "casmoho"
      ],
      [
        "smo",
        "king"
      ],
      [
        "van",
        "ced"
      ],
      [
        "atter",
        "n"
      ],
      [
        "stru",
        "ctive"
      ],
      [
        "hea",
        "vy"
      ],
      [
        "light",
        "s"
      ],
      [
        "dev",
        "ice"
      ],
      [
        "depend",
        "ent"
      ],
      [
        "comm",
        "ercial"
      ],
      [
        "possi",
        "bilit"
      ],
      [
        "plan",
        "ning"
      ],
      [
        "ertain",
        "ly"
      ],
      [
        "break",
        "fast"
      ],
      [
        "supp",
        "ose"
      ],
      [
        "Exc",
        "use"
      ],
      [
        "birth",
        "day"
      ],
      [
        "Em",
        "ily"
      ],
      [
        "Ge",
        "orge"
      ],
      [
        "Hell",
        "o"
      ],
      [
        "Krist",
        "a"
      ],
      [
        "Li",
        "ke"
      ],
      [
        "Ob",
        "viously"
      ],
      [
        "Ox",
        "ford"
      ],
      [
        "Pho",
        "ebe"
      ],
      [
        "Ser",
        "iously"
      ],
      [
        "Stu",
        "art"
      ],
      [
        "Sound",
        "s"
      ],
      [
        "Tod",
        "ay"
      ],
      [
        "Tues",
        "day"
      ],
      [
        "Trib",
        "biani"
      ],
      [
        "bag",
        "s"
      ],
      [
        "cous",
        "in"
      ],
      [
        "dif",
        "ficul"
      ],
      [
        "fall",
        "ing"
      ],
      [
        "fie",
        "ld"
      ],
      [
        "fash",
        "ion"
      ],
      [
        "fron",
        "t"
      ],
      [
        "gif",
        "t"
      ],
      [
        "hid",
        "den"
      ],
      [
        "kitch",
        "en"
      ],
      [
        "mou",
        "th"
      ],
      [
        "mor",
        "r"
      ],
      [
        "nipp",
        "le"
      ],
      [
        "pare",
        "nts"
      ],
      [
        "sch",
        "ool"
      ],
      [
        "wer",
        "en"
      ],
      [
        "rese",
        "arch"
      ],
      [
        "regu",
        "lar"
      ],
      [
        "orig",
        "inal"
      ],
      [
        "allow",
        "ed"
      ],
      [
        "solut",
        "ion"
      ],
      [
        "accid",
        "ent"
      ],
      [
        "coca",
        "ine"
      ],
      [
        "costu",
        "mes"
      ],
      [
        "unti",
        "l"
      ],
      [
        "depres",
        "sed"
      ],
      [
        "opport",
        "un"
      ],
      [
        "conte",
        "st"
      ],
      [
        "biolo",
        "gy"
      ],
      [
        "pregn",
        "ant"
      ],
      [
        "laund",
        "ry"
      ],
      [
        "scientist",
        "s"
      ],
      [
        "puzz",
        "le"
      ],
      [
        "sarcasmoho",
        "lic"
      ],
      [
        "possibilit",
        "y"
      ],
      [
        "!",
        "\""
      ],
      [
        "!",
        "?"
      ],
      [
        "\"",
        "\""
      ],
      [
        "\"",
        "?"
      ],
      [
        "\"",
        "--"
      ],
      [
        "1",
        "1"
      ],
      [
        "1",
        "4"
      ],
      [
        "1",
        "7"
      ],
      [
        "1",
        "9"
      ],
      [
        "1",
        "12"
      ],
      [
        "2",
        "0"
      ],
      [
        "2",
        "5"
      ],
      [
        "2",
        "9"
      ],
      [
        "3",
        "2"
      ],
      [
        "4",
        "0"
      ],
      [
        "7",
        "5"
      ],
      [
        ">",
        "\""
      ],
      [
        "A",
        "N"
      ],
      [
        "A",
        "S"
      ],
      [
        "A",
        "b"
      ],
      [
        "A",
        "d"
      ],
      [
        "A",
        "t"
      ],
      [
        "A",
        "vi"
      ],
      [
        "A",
        "ma"
      ],
      [
        "A",
        "ctu"
      ],
      [
        "B",
        "F"
      ],
      [
        "B",
        "o"
      ],
      [
        "B",
        "at"
      ],
      [
        "B",
        "ing"
      ],
      [
        "B",
        "en"
      ],
      [
        "B",
        "ar"
      ],
      [
        "B",
        "ay"
      ],
      [
        "B",
        "ak"
      ],
      [
        "B",
        "rit"
      ],
      [
        "B",
        "aby"
      ],
      [
        "C",
        "D"
      ],
      [
        "C",
        "r"
      ],
      [
        "C",
        "on"
      ],
      [
        "C",
        "ha"
      ],
      [
        "C",
        "ake"
      ],
      [
        "C",
        "ra"
      ],
      [
        "C",
        "ho"
      ],
      [
        "C",
        "wa"
      ],
      [
        "C",
        "la"
      ],
      [
        "C",
        "offee"
      ],
      [
        "C",
        "old"
      ],
      [
        "C",
        "over"
      ],
      [
        "C",
        "hee"
      ],
      [
        "C",
        "ertainly"
      ],
      [
        "D",
        "C"
      ],
      [
        "D",
        "e"
      ],
      [
        "D",
        "or"
      ],
      [
        "D",
        "ic"
      ],
      [
        "D",
        "am"
      ],
      [
        "D",
        "un"
      ],
      [
        "D",
        "ep"
      ],
      [
        "D",
        "ear"
      ],
      [
        "D",
        "ee"
      ],
      [
        "D",
        "arn"
      ],
      [
        "D",
        "enny"
      ],
      [
        "D",
        "ave"
      ],
      [
        "D",
        "ump"
      ],
      [
        "D",
        "AN"
      ],
      [
        "E",
        "R"
      ],
      [
        "E",
        "n"
      ],
      [
        "E",
        "ve"
      ],
      [
        "E",
        "le"
      ],
      [
        "E",
        "nd"
      ],
      [
        "E",
        "qu"
      ],
      [
        "E",
        "ven"
      ],
      [
        "E",
        "inst"
      ],
      [
        "F",
        "y"
      ],
      [
        "F",
        "in"
      ],
      [
        "F",
        "ac"
      ],
      [
        "F",
        "ir"
      ],
      [
        "G",
        "r"
      ],
      [
        "G",
        "is"
      ],
      [
        "G",
        "al"
      ],
      [
        "G",
        "ell"
      ],
      [
        "G",
        "ee"
      ],
      [
        "G",
        "able"
      ],
      [
        "G",
        "ris"
      ],
      [
        "G",
        "ER"
      ],
      [
        "H",
        "ou"
      ],
      [
        "H",
        "of"
      ],
      [
        "H",
        "es"
      ],
      [
        "H",
        "ad"
      ],
      [
        "H",
        "op"
      ],
      [
        "H",
        "orn"
      ],
      [
        "H",
        "uh"
      ],
      [
        "H",
        "ul"
      ],
      [
        "H",
        "old"
      ],
      [
        "H",
        "ild"
      ],
      [
        "H",
        "mm"
      ],
      [
        "H",
        "ardly"
      ],
      [
        "I",
        "D"
      ],
      [
        "I",
        "nd"
      ],
      [
        "I",
        "ver"
      ],
      [
        "I",
        "mag"
      ],
      [
        "J",
        "a"
      ],
      [
        "J",
        "er"
      ],
      [
        "J",
        "ose"
      ],
      [
        "J",
        "ack"
      ],
      [
        "J",
        "oh"
      ],
      [
        "K",
        "ing"
      ],
      [
        "K",
        "oo"
      ],
      [
        "L",
        "ea"
      ],
      [
        "L",
        "ake"
      ],
      [
        "L",
        "ist"
      ],
      [
        "L",
        "ucky"
      ],
      [
        "M",
        "on"
      ],
      [
        "M",
        "ill"
      ],
      [
        "M",
        "iss"
      ],
      [
        "M",
        "uppet"
      ],
      [
        "N",
        "O"
      ],
      [
        "N",
        "u"
      ],
      [
        "N",
        "ow"
      ],
      [
        "N",
        "ed"
      ],
      [
        "N",
        "ice"
      ],
      [
        "N",
        "ex"
      ],
      [
        "N",
        "arn"
      ],
      [
        "N",
        "umber"
      ],
      [
        "N",
        "AS"
      ],
      [
        "O",
        "c"
      ],
      [
        "O",
        "k"
      ],
      [
        "O",
        "p"
      ],
      [
        "O",
        "w"
      ],
      [
        "O",
        "ne"
      ],
      [
        "O",
        "op"
      ],
      [
        "O",
        "ur"
      ],
      [
        "P",
        "h"
      ],
      [
        "P",
        "an"
      ],
      [
        "P",
        "is"
      ],
      [
        "P",
        "al"
      ],
      [
        "P",
        "ri"
      ],
      [
        "P",
        "ro"
      ],
      [
        "P",
        "op"
      ],
      [
        "P",
        "aper"
      ],
      [
        "P",
        "lease"
      ],
      [
        "P",
        "ower"
      ],
      [
        "P",
        "hill"
      ],
      [
        "P",
        "leased"
      ],
      [
        "Q",
        "u"
      ],
      [
        "R",
        "en"
      ],
      [
        "R",
        "as"
      ],
      [
        "R",
        "es"
      ],
      [
        "S",
        "y"
      ],
      [
        "S",
        "in"
      ],
      [
        "S",
        "on"
      ],
      [
        "S",
        "to"
      ],
      [
        "S",
        "ay"
      ],
      [
        "S",
        "we"
      ],
      [
        "S",
        "co"
      ],
      [
        "S",
        "ell"
      ],
      [
        "S",
        "up"
      ],
      [
        "S",
        "ad"
      ],
      [
        "S",
        "op"
      ],
      [
        "S",
        "how"
      ],
      [
        "S",
        "te"
      ],
      [
        "S",
        "qu"
      ],
      [
        "S",
        "tra"
      ],
      [
        "S",
        "mart"
      ],
      [
        "T",
        "a"
      ],
      [
        "T",
        "r"
      ],
      [
        "T",
        "ell"
      ],
      [
        "T",
        "ake"
      ],
      [
        "T",
        "ook"
      ],
      [
        "T",
        "ur"
      ],
      [
        "T",
        "went"
      ],
      [
        "U",
        "s"
      ],
      [
        "U",
        "mm"
      ],
      [
        "V",
        "an"
      ],
      [
        "V",
        "eg"
      ],
      [
        "V",
        "irg"
      ],
      [
        "W",
        "i"
      ],
      [
        "W",
        "he"
      ],
      [
        "W",
        "ere"
      ],
      [
        "W",
        "al"
      ],
      [
        "W",
        "ould"
      ],
      [
        "W",
        "il"
      ],
      [
        "W",
        "ater"
      ],
      [
        "W",
        "atching"
      ],
      [
        "Y",
        "ear"
      ],
      [
        "Z",
        "ur"
      ],
      [
        "a",
        "u"
      ],
      [
        "a",
        "se"
      ],
      [
        "a",
        "ir"
      ],
      [
        "a",
        "ther"
      ],
      [
        "a",
        "way"
      ],
      [
        "a",
        "pp"
      ],
      [
        "a",
        "il"
      ],
      [
        "a",
        "live"
      ],
      [
        "a",
        "ths"
      ],
      [
        "a",
        "zing"
      ],
      [
        "a",
        "iss"
      ],
      [
        "a",
        "unt"
      ],
      [
        "b",
        "on"
      ],
      [
        "b",
        "ing"
      ],
      [
        "b",
        "en"
      ],
      [
        "b",
        "ar"
      ],
      [
        "b",
        "se"
      ],
      [
        "b",
        "or"
      ],
      [
        "b",
        "all"
      ],
      [
        "b",
        "ow"
      ],
      [
        "b",
        "oo"
      ],
      [
        "b",
        "one"
      ],
      [
        "b",
        "lo"
      ],
      [
        "b",
        "right"
      ],
      [
        "b",
        "um"
      ],
      [
        "b",
        "ank"
      ],
      [
        "b",
        "lan"
      ],
      [
        "b",
        "ert"
      ],
      [
        "b",
        "room"
      ],
      [
        "b",
        "ble"
      ],
      [
        "b",
        "arn"
      ],
      [
        "b",
        "age"
      ],
      [
        "b",
        "ster"
      ],
      [
        "b",
        "aby"
      ],
      [
        "c",
        "y"
      ],
      [
        "c",
        "in"
      ],
      [
        "c",
        "li"
      ],
      [
        "c",
        "es"
      ],
      [
        "c",
        "ow"
      ],
      [
        "c",
        "ch"
      ],
      [
        "c",
        "ac"
      ],
      [
        "c",
        "do"
      ],
      [
        "c",
        "ro"
      ],
      [
        "c",
        "ell"
      ],
      [
        "c",
        "up"
      ],
      [
        "c",
        "ard"
      ],
      [
        "c",
        "ra"
      ],
      [
        "c",
        "atch"
      ],
      [
        "c",
        "rying"
      ],
      [
        "c",
        "ried"
      ],
      [
        "c",
        "lot"
      ],
      [
        "c",
        "lic"
      ],
      [
        "c",
        "atching"
      ],
      [
        "c",
        "hamp"
      ],
      [
        "c",
        "ertainly"
      ],
      [
        "d",
        "th"
      ],
      [
        "d",
        "ic"
      ],
      [
        "d",
        "oo"
      ],
      [
        "d",
        "ri"
      ],
      [
        "d",
        "ut"
      ],
      [
        "d",
        "ust"
      ],
      [
        "d",
        "ra"
      ],
      [
        "d",
        "ge"
      ],
      [
        "d",
        "ur"
      ],
      [
        "d",
        "ash"
      ],
      [
        "d",
        "ding"
      ],
      [
        "d",
        "ating"
      ],
      [
        "d",
        "ling"
      ],
      [
        "d",
        "ouble"
      ],
      [
        "d",
        "entist"
      ],
      [
        "d",
        "ition"
      ],
      [
        "e",
        "f"
      ],
      [
        "e",
        "in"
      ],
      [
        "e",
        "en"
      ],
      [
        "e",
        "se"
      ],
      [
        "e",
        "al"
      ],
      [
        "e",
        "mo"
      ],
      [
        "e",
        "con"
      ],
      [
        "e",
        "qu"
      ],
      [
        "e",
        "ating"
      ],
      [
        "e",
        "vent"
      ],
      [
        "e",
        "vid"
      ],
      [
        "e",
        "asy"
      ],
      [
        "e",
        "Bay"
      ],
      [
        "f",
        "u"
      ],
      [
        "f",
        "on"
      ],
      [
        "f",
        "at"
      ],
      [
        "f",
        "ri"
      ],
      [
        "f",
        "ut"
      ],
      [
        "f",
        "ac"
      ],
      [
        "f",
        "id"
      ],
      [
        "f",
        "ly"
      ],
      [
        "f",
        "ant"
      ],
      [
        "f",
        "us"
      ],
      [
        "f",
        "ice"
      ],
      [
        "f",
        "ine"
      ],
      [
        "f",
        "ace"
      ],
      [
        "f",
        "ts"
      ],
      [
        "f",
        "ence"
      ],
      [
        "f",
        "used"
      ],
      [
        "g",
        "g"
      ],
      [
        "g",
        "or"
      ],
      [
        "g",
        "ay"
      ],
      [
        "g",
        "ly"
      ],
      [
        "g",
        "ry"
      ],
      [
        "g",
        "un"
      ],
      [
        "g",
        "ard"
      ],
      [
        "g",
        "el"
      ],
      [
        "g",
        "ra"
      ],
      [
        "g",
        "gle"
      ],
      [
        "g",
        "ery"
      ],
      [
        "h",
        "l"
      ],
      [
        "h",
        "r"
      ],
      [
        "h",
        "u"
      ],
      [
        "h",
        "in"
      ],
      [
        "h",
        "ay"
      ],
      [
        "h",
        "oo"
      ],
      [
        "h",
        "ook"
      ],
      [
        "h",
        "ood"
      ],
      [
        "h",
        "its"
      ],
      [
        "h",
        "ardly"
      ],
      [
        "i",
        "i"
      ],
      [
        "i",
        "v"
      ],
      [
        "i",
        "th"
      ],
      [
        "i",
        "an"
      ],
      [
        "i",
        "to"
      ],
      [
        "i",
        "me"
      ],
      [
        "i",
        "ver"
      ],
      [
        "i",
        "mo"
      ],
      [
        "i",
        "us"
      ],
      [
        "i",
        "pe"
      ],
      [
        "i",
        "res"
      ],
      [
        "i",
        "liar"
      ],
      [
        "i",
        "ety"
      ],
      [
        "j",
        "on"
      ],
      [
        "j",
        "unk"
      ],
      [
        "j",
        "ect"
      ],
      [
        "j",
        "ump"
      ],
      [
        "j",
        "ail"
      ],
      [
        "k",
        "i"
      ],
      [
        "k",
        "no"
      ],
      [
        "k",
        "li"
      ],
      [
        "k",
        "ir"
      ],
      [
        "k",
        "na"
      ],
      [
        "k",
        "ill"
      ],
      [
        "k",
        "new"
      ],
      [
        "l",
        "in"
      ],
      [
        "l",
        "or"
      ],
      [
        "l",
        "ay"
      ],
      [
        "l",
        "od"
      ],
      [
        "l",
        "one"
      ],
      [
        "l",
        "ti"
      ],
      [
        "l",
        "come"
      ],
      [
        "l",
        "oom"
      ],
      [
        "l",
        "uck"
      ],
      [
        "l",
        "ary"
      ],
      [
        "l",
        "ations"
      ],
      [
        "l",
        "ater"
      ],
      [
        "l",
        "ord"
      ],
      [
        "l",
        "ucky"
      ],
      [
        "l",
        "ante"
      ],
      [
        "m",
        "as"
      ],
      [
        "m",
        "id"
      ],
      [
        "m",
        "ir"
      ],
      [
        "m",
        "one"
      ],
      [
        "m",
        "ant"
      ],
      [
        "m",
        "us"
      ],
      [
        "m",
        "ind"
      ],
      [
        "m",
        "ur"
      ],
      [
        "m",
        "ak"
      ],
      [
        "m",
        "ine"
      ],
      [
        "m",
        "il"
      ],
      [
        "m",
        "ood"
      ],
      [
        "m",
        "ile"
      ],
      [
        "m",
        "ist"
      ],
      [
        "m",
        "por"
      ],
      [
        "m",
        "ass"
      ],
      [
        "m",
        "ber"
      ],
      [
        "m",
        "ild"
      ],
      [
        "m",
        "ix"
      ],
      [
        "m",
        "odel"
      ],
      [
        "m",
        "imo"
      ],
      [
        "n",
        "u"
      ],
      [
        "n",
        "x"
      ],
      [
        "n",
        "it"
      ],
      [
        "n",
        "es"
      ],
      [
        "n",
        "ch"
      ],
      [
        "n",
        "ic"
      ],
      [
        "n",
        "am"
      ],
      [
        "n",
        "ie"
      ],
      [
        "n",
        "ation"
      ],
      [
        "n",
        "ess"
      ],
      [
        "n",
        "ia"
      ],
      [
        "n",
        "ations"
      ],
      [
        "n",
        "ger"
      ],
      [
        "o",
        "a"
      ],
      [
        "o",
        "th"
      ],
      [
        "o",
        "re"
      ],
      [
        "o",
        "ard"
      ],
      [
        "o",
        "ce"
      ],
      [
        "o",
        "sa"
      ],
      [
        "o",
        "ga"
      ],
      [
        "o",
        "tic"
      ],
      [
        "o",
        "bse"
      ],
      [
        "p",
        "y"
      ],
      [
        "p",
        "ar"
      ],
      [
        "p",
        "ay"
      ],
      [
        "p",
        "al"
      ],
      [
        "p",
        "el"
      ],
      [
        "p",
        "ack"
      ],
      [
        "p",
        "orn"
      ],
      [
        "p",
        "ace"
      ],
      [
        "p",
        "ts"
      ],
      [
        "p",
        "atch"
      ],
      [
        "p",
        "ower"
      ],
      [
        "p",
        "uppet"
      ],
      [
        "p",
        "attern"
      ],
      [
        "p",
        "air"
      ],
      [
        "r",
        "as"
      ],
      [
        "r",
        "ab"
      ],
      [
        "r",
        "na"
      ],
      [
        "r",
        "un"
      ],
      [
        "r",
        "use"
      ],
      [
        "r",
        "ind"
      ],
      [
        "r",
        "ack"
      ],
      [
        "r",
        "ate"
      ],
      [
        "r",
        "ite"
      ],
      [
        "r",
        "ance"
      ],
      [
        "r",
        "hy"
      ],
      [
        "r",
        "ush"
      ],
      [
        "r",
        "atching"
      ],
      [
        "s",
        "in"
      ],
      [
        "s",
        "at"
      ],
      [
        "s",
        "le"
      ],
      [
        "s",
        "as"
      ],
      [
        "s",
        "co"
      ],
      [
        "s",
        "un"
      ],
      [
        "s",
        "ag"
      ],
      [
        "s",
        "pe"
      ],
      [
        "s",
        "ho"
      ],
      [
        "s",
        "ill"
      ],
      [
        "s",
        "qu"
      ],
      [
        "s",
        "wo"
      ],
      [
        "s",
        "ked"
      ],
      [
        "s",
        "mu"
      ],
      [
        "s",
        "ation"
      ],
      [
        "s",
        "ses"
      ],
      [
        "s",
        "ix"
      ],
      [
        "s",
        "ign"
      ],
      [
        "s",
        "hamp"
      ],
      [
        "s",
        "kir"
      ],
      [
        "t",
        "w"
      ],
      [
        "t",
        "in"
      ],
      [
        "t",
        "on"
      ],
      [
        "t",
        "re"
      ],
      [
        "t",
        "es"
      ],
      [
        "t",
        "ch"
      ],
      [
        "t",
        "we"
      ],
      [
        "t",
        "ro"
      ],
      [
        "t",
        "ent"
      ],
      [
        "t",
        "ally"
      ],
      [
        "t",
        "ak"
      ],
      [
        "t",
        "ane"
      ],
      [
        "t",
        "ling"
      ],
      [
        "t",
        "reat"
      ],
      [
        "t",
        "ered"
      ],
      [
        "t",
        "each"
      ],
      [
        "t",
        "shirt"
      ],
      [
        "u",
        "v"
      ],
      [
        "u",
        "al"
      ],
      [
        "u",
        "ro"
      ],
      [
        "u",
        "na"
      ],
      [
        "u",
        "ry"
      ],
      [
        "u",
        "de"
      ],
      [
        "u",
        "ate"
      ],
      [
        "u",
        "cer"
      ],
      [
        "u",
        "da"
      ],
      [
        "u",
        "cop"
      ],
      [
        "u",
        "cin"
      ],
      [
        "u",
        "gly"
      ],
      [
        "v",
        "a"
      ],
      [
        "v",
        "in"
      ],
      [
        "v",
        "is"
      ],
      [
        "v",
        "ile"
      ],
      [
        "v",
        "om"
      ],
      [
        "v",
        "ated"
      ],
      [
        "v",
        "ity"
      ],
      [
        "v",
        "ered"
      ],
      [
        "v",
        "irg"
      ],
      [
        "w",
        "s"
      ],
      [
        "w",
        "in"
      ],
      [
        "w",
        "re"
      ],
      [
        "w",
        "and"
      ],
      [
        "w",
        "all"
      ],
      [
        "w",
        "es"
      ],
      [
        "w",
        "ed"
      ],
      [
        "w",
        "up"
      ],
      [
        "w",
        "us"
      ],
      [
        "w",
        "ad"
      ],
      [
        "w",
        "ake"
      ],
      [
        "w",
        "art"
      ],
      [
        "w",
        "ine"
      ],
      [
        "w",
        "ish"
      ],
      [
        "w",
        "ood"
      ],
      [
        "w",
        "itch"
      ],
      [
        "w",
        "ers"
      ],
      [
        "w",
        "ron"
      ],
      [
        "w",
        "rit"
      ],
      [
        "w",
        "rite"
      ],
      [
        "x",
        "well"
      ],
      [
        "x",
        "im"
      ],
      [
        "x",
        "iety"
      ],
      [
        "y",
        "s"
      ],
      [
        "y",
        "al"
      ],
      [
        "y",
        "et"
      ],
      [
        "y",
        "est"
      ],
      [
        "y",
        "ucky"
      ],
      [
        "y",
        "sis"
      ],
      [
        "y",
        "odel"
      ],
      [
        "y",
        "oga"
      ],
      [
        "z",
        "y"
      ],
      [
        "z",
        "en"
      ],
      [
        "z",
        "it"
      ],
      [
        "z",
        "ar"
      ],
      [
        "z",
        "ill"
      ],
      [
        "€",
        "™"
      ],
      [
        "th",
        "m"
      ],
      [
        "th",
        "ra"
      ],
      [
        "th",
        "ru"
      ],
      [
        "in",
        "at"
      ],
      [
        "in",
        "ha"
      ],
      [
        "in",
        "ch"
      ],
      [
        "in",
        "ion"
      ],
      [
        "in",
        "su"
      ],
      [
        "in",
        "ep"
      ],
      [
        "in",
        "ess"
      ],
      [
        "in",
        "ia"
      ],
      [
        "in",
        "cre"
      ],
      [
        "in",
        "ery"
      ],
      [
        "in",
        "fla"
      ],
      [
        "in",
        "fect"
      ],
      [
        "in",
        "ferring"
      ],
      [
        "in",
        "dependent"
      ],
      [
        "an",
        "s"
      ],
      [
        "an",
        "no"
      ],
      [
        "an",
        "al"
      ],
      [
        "an",
        "ed"
      ],
      [
        "an",
        "ish"
      ],
      [
        "an",
        "swer"
      ],
      [
        "an",
        "xiety"
      ],
      [
        "er",
        "st"
      ],
      [
        "er",
        "as"
      ],
      [
        "er",
        "man"
      ],
      [
        "er",
        "day"
      ],
      [
        "er",
        "ating"
      ],
      [
        "er",
        "iv"
      ],
      [
        "on",
        "d"
      ],
      [
        "on",
        "line"
      ],
      [
        "on",
        "tane"
      ],
      [
        "at",
        "on"
      ],
      [
        "at",
        "en"
      ],
      [
        "at",
        "ul"
      ],
      [
        "at",
        "tit"
      ],
      [
        "you",
        "nger"
      ],
      [
        "re",
        "y"
      ],
      [
        "re",
        "me"
      ],
      [
        "re",
        "li"
      ],
      [
        "re",
        "co"
      ],
      [
        "re",
        "am"
      ],
      [
        "re",
        "de"
      ],
      [
        "re",
        "qu"
      ],
      [
        "re",
        "la"
      ],
      [
        "re",
        "ach"
      ],
      [
        "re",
        "lieve"
      ],
      [
        "re",
        "port"
      ],
      [
        "re",
        "nt"
      ],
      [
        "re",
        "ssing"
      ],
      [
        "re",
        "establ"
      ],
      [
        "re",
        "ferring"
      ],
      [
        "re",
        "solution"
      ],
      [
        "re",
        "lations"
      ],
      [
        "re",
        "wup"
      ],
      [
        "the",
        "s"
      ],
      [
        "the",
        "tic"
      ],
      [
        "the",
        "ore"
      ],
      [
        "to",
        "we"
      ],
      [
        "to",
        "ry"
      ],
      [
        "to",
        "ast"
      ],
      [
        "to",
        "ge"
      ],
      [
        "to",
        "pic"
      ],
      [
        "to",
        "ms"
      ],
      [
        "to",
        "mb"
      ],
      [
        "to",
        "wn"
      ],
      [
        "to",
        "morr"
      ],
      [
        "to",
        "rna"
      ],
      [
        "to",
        "tally"
      ],
      [
        "ll",
        "a"
      ],
      [
        "ll",
        "ing"
      ],
      [
        "ll",
        "ar"
      ],
      [
        "ll",
        "do"
      ],
      [
        "ll",
        "ect"
      ],
      [
        "st",
        "on"
      ],
      [
        "st",
        "ea"
      ],
      [
        "st",
        "one"
      ],
      [
        "st",
        "ad"
      ],
      [
        "st",
        "ring"
      ],
      [
        "st",
        "able"
      ],
      [
        "st",
        "em"
      ],
      [
        "st",
        "ling"
      ],
      [
        "st",
        "eel"
      ],
      [
        "st",
        "eal"
      ],
      [
        "st",
        "ream"
      ],
      [
        "en",
        "e"
      ],
      [
        "en",
        "y"
      ],
      [
        "en",
        "ch"
      ],
      [
        "en",
        "cour"
      ],
      [
        "en",
        "theor"
      ],
      [
        "it",
        "ar"
      ],
      [
        "it",
        "che"
      ],
      [
        "it",
        "ies"
      ],
      [
        "is",
        "e"
      ],
      [
        "is",
        "m"
      ],
      [
        "is",
        "on"
      ],
      [
        "is",
        "he"
      ],
      [
        "is",
        "ed"
      ],
      [
        "is",
        "per"
      ],
      [
        "is",
        "py"
      ],
      [
        "me",
        "t"
      ],
      [
        "me",
        "sto"
      ],
      [
        "ar",
        "ing"
      ],
      [
        "ar",
        "ly"
      ],
      [
        "ar",
        "ant"
      ],
      [
        "ar",
        "che"
      ],
      [
        "ar",
        "ily"
      ],
      [
        "ar",
        "ms"
      ],
      [
        "se",
        "es"
      ],
      [
        "se",
        "min"
      ],
      [
        "se",
        "ts"
      ],
      [
        "se",
        "ct"
      ],
      [
        "se",
        "cre"
      ],
      [
        "se",
        "vent"
      ],
      [
        "se",
        "ason"
      ],
      [
        "se",
        "lling"
      ],
      [
        "or",
        "t"
      ],
      [
        "or",
        "al"
      ],
      [
        "or",
        "ia"
      ],
      [
        "or",
        "ah"
      ],
      [
        "no",
        "se"
      ],
      [
        "no",
        "thin"
      ],
      [
        "ve",
        "l"
      ],
      [
        "ve",
        "st"
      ],
      [
        "ve",
        "lo"
      ],
      [
        "ve",
        "ling"
      ],
      [
        "ve",
        "ls"
      ],
      [
        "ve",
        "cch"
      ],
      [
        "le",
        "en"
      ],
      [
        "le",
        "ad"
      ],
      [
        "le",
        "ss"
      ],
      [
        "le",
        "tt"
      ],
      [
        "le",
        "br"
      ],
      [
        "le",
        "ctu"
      ],
      [
        "le",
        "phone"
      ],
      [
        "le",
        "aned"
      ],
      [
        "le",
        "vels"
      ],
      [
        "as",
        "ing"
      ],
      [
        "as",
        "ses"
      ],
      [
        "of",
        "in"
      ],
      [
        "of",
        "ess"
      ],
      [
        "of",
        "ten"
      ],
      [
        "he",
        "ll"
      ],
      [
        "he",
        "al"
      ],
      [
        "he",
        "morr"
      ],
      [
        "be",
        "e"
      ],
      [
        "be",
        "l"
      ],
      [
        "be",
        "ll"
      ],
      [
        "be",
        "ca"
      ],
      [
        "be",
        "long"
      ],
      [
        "be",
        "aut"
      ],
      [
        "be",
        "aver"
      ],
      [
        "be",
        "loved"
      ],
      [
        "be",
        "gun"
      ],
      [
        "be",
        "twe"
      ],
      [
        "be",
        "ans"
      ],
      [
        "be",
        "aten"
      ],
      [
        "go",
        "ofin"
      ],
      [
        "ke",
        "s"
      ],
      [
        "li",
        "p"
      ],
      [
        "li",
        "qu"
      ],
      [
        "li",
        "very"
      ],
      [
        "li",
        "ber"
      ],
      [
        "li",
        "ma"
      ],
      [
        "li",
        "mb"
      ],
      [
        "li",
        "days"
      ],
      [
        "li",
        "hood"
      ],
      [
        "li",
        "va"
      ],
      [
        "ha",
        "ck"
      ],
      [
        "ha",
        "ps"
      ],
      [
        "ha",
        "user"
      ],
      [
        "wh",
        "il"
      ],
      [
        "wh",
        "ite"
      ],
      [
        "wh",
        "ich"
      ],
      [
        "es",
        "ar"
      ],
      [
        "ow",
        "e"
      ],
      [
        "ow",
        "s"
      ],
      [
        "ow",
        "ing"
      ],
      [
        "ch",
        "ic"
      ],
      [
        "ch",
        "ang"
      ],
      [
        "ch",
        "im"
      ],
      [
        "ch",
        "ange"
      ],
      [
        "ch",
        "lor"
      ],
      [
        "ch",
        "nic"
      ],
      [
        "ch",
        "asing"
      ],
      [
        "out",
        "side"
      ],
      [
        "al",
        "read"
      ],
      [
        "ed",
        "ge"
      ],
      [
        "ed",
        "ito"
      ],
      [
        "ic",
        "ing"
      ],
      [
        "ic",
        "ill"
      ],
      [
        "ic",
        "ago"
      ],
      [
        "ic",
        "ide"
      ],
      [
        "oo",
        "ps"
      ],
      [
        "we",
        "t"
      ],
      [
        "we",
        "ight"
      ],
      [
        "we",
        "ak"
      ],
      [
        "we",
        "ird"
      ],
      [
        "we",
        "ave"
      ],
      [
        "we",
        "ather"
      ],
      [
        "we",
        "lcome"
      ],
      [
        "ri",
        "to"
      ],
      [
        "ri",
        "fic"
      ],
      [
        "so",
        "on"
      ],
      [
        "so",
        "ck"
      ],
      [
        "so",
        "red"
      ],
      [
        "so",
        "ci"
      ],
      [
        "so",
        "cks"
      ],
      [
        "so",
        "cial"
      ],
      [
        "ut",
        "e"
      ],
      [
        "ut",
        "s"
      ],
      [
        "wi",
        "den"
      ],
      [
        "wi",
        "gs"
      ],
      [
        "wi",
        "dth"
      ],
      [
        "ac",
        "ro"
      ],
      [
        "ac",
        "ce"
      ],
      [
        "ac",
        "ti"
      ],
      [
        "ac",
        "com"
      ],
      [
        "ac",
        "comm"
      ],
      [
        "co",
        "a"
      ],
      [
        "co",
        "ke"
      ],
      [
        "co",
        "ld"
      ],
      [
        "co",
        "ver"
      ],
      [
        "co",
        "con"
      ],
      [
        "co",
        "pe"
      ],
      [
        "co",
        "ast"
      ],
      [
        "co",
        "lon"
      ],
      [
        "co",
        "vered"
      ],
      [
        "co",
        "coa"
      ],
      [
        "ea",
        "gle"
      ],
      [
        "for",
        "m"
      ],
      [
        "for",
        "bod"
      ],
      [
        "for",
        "med"
      ],
      [
        "for",
        "kli"
      ],
      [
        "id",
        "s"
      ],
      [
        "id",
        "er"
      ],
      [
        "id",
        "ers"
      ],
      [
        "id",
        "io"
      ],
      [
        "do",
        "m"
      ],
      [
        "do",
        "zen"
      ],
      [
        "do",
        "llar"
      ],
      [
        "ab",
        "ia"
      ],
      [
        "ab",
        "oard"
      ],
      [
        "et",
        "ly"
      ],
      [
        "et",
        "ings"
      ],
      [
        "just",
        "ice"
      ],
      [
        "No",
        "thing"
      ],
      [
        "No",
        "body"
      ],
      [
        "ro",
        "y"
      ],
      [
        "ro",
        "se"
      ],
      [
        "ro",
        "le"
      ],
      [
        "ro",
        "cks"
      ],
      [
        "ro",
        "cked"
      ],
      [
        "ro",
        "gue"
      ],
      [
        "ro",
        "bot"
      ],
      [
        "ent",
        "y"
      ],
      [
        "ent",
        "ed"
      ],
      [
        "ent",
        "ertain"
      ],
      [
        "ent",
        "rance"
      ],
      [
        "ell",
        "e"
      ],
      [
        "ell",
        "an"
      ],
      [
        "ell",
        "ent"
      ],
      [
        "Wh",
        "ich"
      ],
      [
        "Wh",
        "oa"
      ],
      [
        "Wh",
        "isper"
      ],
      [
        "am",
        "ent"
      ],
      [
        "am",
        "us"
      ],
      [
        "am",
        "bi"
      ],
      [
        "am",
        "azing"
      ],
      [
        "am",
        "ond"
      ],
      [
        "ver",
        "t"
      ],
      [
        "ver",
        "se"
      ],
      [
        "ver",
        "sation"
      ],
      [
        "don",
        "e"
      ],
      [
        "don",
        "uts"
      ],
      [
        "are",
        "a"
      ],
      [
        "are",
        "d"
      ],
      [
        "are",
        "as"
      ],
      [
        "are",
        "nt"
      ],
      [
        "od",
        "ate"
      ],
      [
        "your",
        "s"
      ],
      [
        "Th",
        "en"
      ],
      [
        "know",
        "n"
      ],
      [
        "know",
        "s"
      ],
      [
        "lo",
        "e"
      ],
      [
        "lo",
        "st"
      ],
      [
        "lo",
        "se"
      ],
      [
        "lo",
        "ad"
      ],
      [
        "lo",
        "sing"
      ],
      [
        "lo",
        "af"
      ],
      [
        "lo",
        "yal"
      ],
      [
        "ant",
        "entheor"
      ],
      [
        "if",
        "y"
      ],
      [
        "if",
        "ul"
      ],
      [
        "mo",
        "ck"
      ],
      [
        "mo",
        "ving"
      ],
      [
        "mo",
        "vie"
      ],
      [
        "mo",
        "ved"
      ],
      [
        "mo",
        "vement"
      ],
      [
        "us",
        "ually"
      ],
      [
        "not",
        "ion"
      ],
      [
        "can",
        "not"
      ],
      [
        "un",
        "g"
      ],
      [
        "un",
        "y"
      ],
      [
        "un",
        "ate"
      ],
      [
        "un",
        "cen"
      ],
      [
        "un",
        "iver"
      ],
      [
        "un",
        "stable"
      ],
      [
        "un",
        "usually"
      ],
      [
        "ca",
        "po"
      ],
      [
        "ca",
        "pp"
      ],
      [
        "ne",
        "l"
      ],
      [
        "ne",
        "st"
      ],
      [
        "ne",
        "ck"
      ],
      [
        "ne",
        "arly"
      ],
      [
        "like",
        "d"
      ],
      [
        "like",
        "s"
      ],
      [
        "ion",
        "al"
      ],
      [
        "ad",
        "as"
      ],
      [
        "ad",
        "vent"
      ],
      [
        "ad",
        "dle"
      ],
      [
        "ad",
        "vanced"
      ],
      [
        "ad",
        "mir"
      ],
      [
        "It",
        "s"
      ],
      [
        "It",
        "ali"
      ],
      [
        "de",
        "ment"
      ],
      [
        "de",
        "ep"
      ],
      [
        "de",
        "gre"
      ],
      [
        "de",
        "cent"
      ],
      [
        "de",
        "cen"
      ],
      [
        "de",
        "structive"
      ],
      [
        "de",
        "fence"
      ],
      [
        "de",
        "velo"
      ],
      [
        "de",
        "livery"
      ],
      [
        "her",
        "o"
      ],
      [
        "her",
        "self"
      ],
      [
        "her",
        "nia"
      ],
      [
        "su",
        "m"
      ],
      [
        "su",
        "it"
      ],
      [
        "su",
        "ck"
      ],
      [
        "su",
        "ming"
      ],
      [
        "su",
        "icide"
      ],
      [
        "ce",
        "lon"
      ],
      [
        "ce",
        "pts"
      ],
      [
        "ce",
        "lebr"
      ],
      [
        "fe",
        "ar"
      ],
      [
        "fe",
        "ed"
      ],
      [
        "fe",
        "et"
      ],
      [
        "fe",
        "lt"
      ],
      [
        "op",
        "ping"
      ],
      [
        "op",
        "inion"
      ],
      [
        "op",
        "erating"
      ],
      [
        "she",
        "ep"
      ],
      [
        "ti",
        "est"
      ],
      [
        "ti",
        "red"
      ],
      [
        "ti",
        "les"
      ],
      [
        "some",
        "times"
      ],
      [
        "..",
        ".."
      ],
      [
        "gu",
        "ms"
      ],
      [
        "gu",
        "itar"
      ],
      [
        "gu",
        "arant"
      ],
      [
        "how",
        "ever"
      ],
      [
        "ind",
        "uce"
      ],
      [
        "art",
        "er"
      ],
      [
        "art",
        "ment"
      ],
      [
        "What",
        "s"
      ],
      [
        "ag",
        "er"
      ],
      [
        "ag",
        "es"
      ],
      [
        "ag",
        "ed"
      ],
      [
        "ag",
        "na"
      ],
      [
        "ag",
        "ne"
      ],
      [
        "ag",
        "gle"
      ],
      [
        "ag",
        "net"
      ],
      [
        "ag",
        "ons"
      ],
      [
        "end",
        "ing"
      ],
      [
        "end",
        "ed"
      ],
      [
        "got",
        "ten"
      ],
      [
        "but",
        "ion"
      ],
      [
        "man",
        "ner"
      ],
      [
        "man",
        "ager"
      ],
      [
        "The",
        "se"
      ],
      [
        "per",
        "ate"
      ],
      [
        "per",
        "fect"
      ],
      [
        "per",
        "haps"
      ],
      [
        "per",
        "form"
      ],
      [
        "per",
        "vert"
      ],
      [
        "sa",
        "w"
      ],
      [
        "sa",
        "le"
      ],
      [
        "sa",
        "il"
      ],
      [
        "sa",
        "ving"
      ],
      [
        "sa",
        "liva"
      ],
      [
        "tu",
        "b"
      ],
      [
        "tu",
        "red"
      ],
      [
        "tu",
        "cked"
      ],
      [
        "see",
        "ing"
      ],
      [
        "con",
        "sc"
      ],
      [
        "con",
        "tri"
      ],
      [
        "con",
        "clu"
      ],
      [
        "con",
        "cer"
      ],
      [
        "con",
        "structive"
      ],
      [
        "con",
        "fused"
      ],
      [
        "con",
        "tro"
      ],
      [
        "con",
        "vin"
      ],
      [
        "con",
        "versation"
      ],
      [
        "con",
        "cepts"
      ],
      [
        "ter",
        "rib"
      ],
      [
        "ter",
        "nation"
      ],
      [
        "ter",
        "rific"
      ],
      [
        "wor",
        "n"
      ],
      [
        "wor",
        "st"
      ],
      [
        "wor",
        "ried"
      ],
      [
        "want",
        "ed"
      ],
      [
        "hi",
        "a"
      ],
      [
        "hi",
        "p"
      ],
      [
        "hi",
        "re"
      ],
      [
        "ment",
        "ion"
      ],
      [
        "ment",
        "ary"
      ],
      [
        "ra",
        "in"
      ],
      [
        "ra",
        "el"
      ],
      [
        "ra",
        "ther"
      ],
      [
        "ra",
        "ise"
      ],
      [
        "te",
        "ar"
      ],
      [
        "te",
        "qu"
      ],
      [
        "te",
        "les"
      ],
      [
        "te",
        "cted"
      ],
      [
        "te",
        "mpor"
      ],
      [
        "te",
        "eny"
      ],
      [
        "te",
        "lephone"
      ],
      [
        "te",
        "chnic"
      ],
      [
        "talk",
        "ie"
      ],
      [
        "lf",
        "ill"
      ],
      [
        "pe",
        "er"
      ],
      [
        "pe",
        "ar"
      ],
      [
        "pe",
        "ek"
      ],
      [
        "pro",
        "be"
      ],
      [
        "pro",
        "tected"
      ],
      [
        "ss",
        "ion"
      ],
      [
        "mean",
        "ing"
      ],
      [
        "ast",
        "ic"
      ],
      [
        "ast",
        "ron"
      ],
      [
        "lit",
        "tered"
      ],
      [
        "any",
        "body"
      ],
      [
        "too",
        "ls"
      ],
      [
        "com",
        "ments"
      ],
      [
        "love",
        "ly"
      ],
      [
        "Le",
        "e"
      ],
      [
        "Le",
        "ia"
      ],
      [
        "bo",
        "th"
      ],
      [
        "bo",
        "ard"
      ],
      [
        "bo",
        "ther"
      ],
      [
        "bo",
        "tt"
      ],
      [
        "bo",
        "son"
      ],
      [
        "bo",
        "iling"
      ],
      [
        "bo",
        "sses"
      ],
      [
        "ie",
        "vement"
      ],
      [
        "po",
        "t"
      ],
      [
        "po",
        "sitive"
      ],
      [
        "po",
        "cket"
      ],
      [
        "po",
        "thetic"
      ],
      [
        "tle",
        "ss"
      ],
      [
        "tle",
        "star"
      ],
      [
        "um",
        "met"
      ],
      [
        "ate",
        "ly"
      ],
      [
        "We",
        "b"
      ],
      [
        "We",
        "ā"
      ],
      [
        "ge",
        "on"
      ],
      [
        "ge",
        "ons"
      ],
      [
        "ho",
        "st"
      ],
      [
        "ho",
        "le"
      ],
      [
        "ho",
        "lidays"
      ],
      [
        "ho",
        "ids"
      ],
      [
        "qu",
        "ee"
      ],
      [
        "qu",
        "ented"
      ],
      [
        "qu",
        "arter"
      ],
      [
        "ur",
        "s"
      ],
      [
        "ur",
        "days"
      ],
      [
        "ven",
        "s"
      ],
      [
        "ven",
        "us"
      ],
      [
        "ank",
        "y"
      ],
      [
        "ank",
        "ly"
      ],
      [
        "rom",
        "agnet"
      ],
      [
        "back",
        "s"
      ],
      [
        "back",
        "ward"
      ],
      [
        "che",
        "s"
      ],
      [
        "che",
        "er"
      ],
      [
        "che",
        "ek"
      ],
      [
        "che",
        "ese"
      ],
      [
        "could",
        "n"
      ],
      [
        "ex",
        "pl"
      ],
      [
        "ex",
        "actly"
      ],
      [
        "ex",
        "otic"
      ],
      [
        "gi",
        "ous"
      ],
      [
        "gi",
        "lante"
      ],
      [
        "gi",
        "ene"
      ],
      [
        "pl",
        "ate"
      ],
      [
        "pl",
        "ish"
      ],
      [
        "pl",
        "ane"
      ],
      [
        "pl",
        "enty"
      ],
      [
        "pl",
        "ummet"
      ],
      [
        "pre",
        "ss"
      ],
      [
        "pre",
        "ssing"
      ],
      [
        "pre",
        "dic"
      ],
      [
        "sto",
        "mach"
      ],
      [
        "wo",
        "men"
      ],
      [
        "wo",
        "mb"
      ],
      [
        "ous",
        "ly"
      ],
      [
        "come",
        "s"
      ],
      [
        "So",
        "vi"
      ],
      [
        "ep",
        "ing"
      ],
      [
        "ep",
        "inep"
      ],
      [
        "gre",
        "y"
      ],
      [
        "gre",
        "asy"
      ],
      [
        "gre",
        "etings"
      ],
      [
        "gir",
        "lie"
      ],
      [
        "make",
        "s"
      ],
      [
        "make",
        "up"
      ],
      [
        "pp",
        "y"
      ],
      [
        "pp",
        "ed"
      ],
      [
        "pp",
        "ali"
      ],
      [
        "ru",
        "de"
      ],
      [
        "ru",
        "ment"
      ],
      [
        "ru",
        "les"
      ],
      [
        "sh",
        "ort"
      ],
      [
        "sh",
        "opping"
      ],
      [
        "sp",
        "ring"
      ],
      [
        "sp",
        "ontane"
      ],
      [
        "sp",
        "leen"
      ],
      [
        "sp",
        "ider"
      ],
      [
        "sp",
        "ending"
      ],
      [
        "had",
        "n"
      ],
      [
        "down",
        "hill"
      ],
      [
        "ear",
        "s"
      ],
      [
        "mu",
        "lti"
      ],
      [
        "sc",
        "out"
      ],
      [
        "sc",
        "ary"
      ],
      [
        "sc",
        "ratching"
      ],
      [
        "sc",
        "rewup"
      ],
      [
        "sc",
        "ared"
      ],
      [
        "ine",
        "se"
      ],
      [
        "ish",
        "y"
      ],
      [
        "ish",
        "ment"
      ],
      [
        "will",
        "ing"
      ],
      [
        "Ch",
        "ick"
      ],
      [
        "Ch",
        "rist"
      ],
      [
        "Ch",
        "uro"
      ],
      [
        "Ch",
        "icago"
      ],
      [
        "Ch",
        "loe"
      ],
      [
        "Ch",
        "inese"
      ],
      [
        "il",
        "a"
      ],
      [
        "il",
        "adas"
      ],
      [
        "night",
        "clu"
      ],
      [
        "ul",
        "ar"
      ],
      [
        "ace",
        "ment"
      ],
      [
        "All",
        "en"
      ],
      [
        "bu",
        "g"
      ],
      [
        "bu",
        "y"
      ],
      [
        "bu",
        "rying"
      ],
      [
        "bu",
        "ash"
      ],
      [
        "bu",
        "cket"
      ],
      [
        "bu",
        "ying"
      ],
      [
        "bu",
        "lldo"
      ],
      [
        "ga",
        "zar"
      ],
      [
        "jo",
        "b"
      ],
      [
        "jo",
        "in"
      ],
      [
        "jo",
        "ke"
      ],
      [
        "jo",
        "gg"
      ],
      [
        "min",
        "t"
      ],
      [
        "min",
        "or"
      ],
      [
        "might",
        "y"
      ],
      [
        "put",
        "in"
      ],
      [
        "put",
        "ting"
      ],
      [
        "sit",
        "e"
      ],
      [
        "sit",
        "y"
      ],
      [
        "tell",
        "s"
      ],
      [
        "tell",
        "ing"
      ],
      [
        "wa",
        "ff"
      ],
      [
        "wa",
        "ii"
      ],
      [
        "stu",
        "died"
      ],
      [
        "med",
        "ical"
      ],
      [
        "ct",
        "ron"
      ],
      [
        "ct",
        "romagnet"
      ],
      [
        "des",
        "cent"
      ],
      [
        "des",
        "perate"
      ],
      [
        "ile",
        "d"
      ],
      [
        "la",
        "pel"
      ],
      [
        "la",
        "bel"
      ],
      [
        "may",
        "or"
      ],
      [
        "start",
        "s"
      ],
      [
        "start",
        "led"
      ],
      [
        "itch",
        "y"
      ],
      [
        "lea",
        "ther"
      ],
      [
        "Be",
        "an"
      ],
      [
        "car",
        "ry"
      ],
      [
        "car",
        "ving"
      ],
      [
        "car",
        "ouse"
      ],
      [
        "ey",
        "e"
      ],
      [
        "ey",
        "ed"
      ],
      [
        "est",
        "ef"
      ],
      [
        "fi",
        "x"
      ],
      [
        "fi",
        "re"
      ],
      [
        "gl",
        "ad"
      ],
      [
        "gl",
        "ish"
      ],
      [
        "gl",
        "aring"
      ],
      [
        "gl",
        "oria"
      ],
      [
        "ring",
        "s"
      ],
      [
        "son",
        "s"
      ],
      [
        "act",
        "ica"
      ],
      [
        "big",
        "ger"
      ],
      [
        "In",
        "ternation"
      ],
      [
        "cl",
        "ass"
      ],
      [
        "cl",
        "asses"
      ],
      [
        "cr",
        "ush"
      ],
      [
        "cr",
        "ispy"
      ],
      [
        "cr",
        "anky"
      ],
      [
        "fir",
        "m"
      ],
      [
        "hand",
        "le"
      ],
      [
        "hand",
        "ed"
      ],
      [
        "mon",
        "ster"
      ],
      [
        "por",
        "k"
      ],
      [
        "por",
        "tive"
      ],
      [
        "sw",
        "allowed"
      ],
      [
        "sw",
        "itche"
      ],
      [
        "sw",
        "oops"
      ],
      [
        "tra",
        "in"
      ],
      [
        "tra",
        "veling"
      ],
      [
        "won",
        "t"
      ],
      [
        "ers",
        "field"
      ],
      [
        "live",
        "s"
      ],
      [
        "live",
        "lihood"
      ],
      [
        "wait",
        "ing"
      ],
      [
        "wait",
        "ressing"
      ],
      [
        "Noo",
        "oo"
      ],
      [
        "Of",
        "course"
      ],
      [
        "Of",
        "fice"
      ],
      [
        "On",
        "ce"
      ],
      [
        "Re",
        "gard"
      ],
      [
        "Ro",
        "ck"
      ],
      [
        "ach",
        "ute"
      ],
      [
        "ach",
        "ievement"
      ],
      [
        "din",
        "osa"
      ],
      [
        "gr",
        "atul"
      ],
      [
        "gr",
        "owing"
      ],
      [
        "ig",
        "ner"
      ],
      [
        "ig",
        "swi"
      ],
      [
        "kind",
        "a"
      ],
      [
        "over",
        "heard"
      ],
      [
        "over",
        "lord"
      ],
      [
        "ps",
        "ack"
      ],
      [
        "pic",
        "ked"
      ],
      [
        "ron",
        "iz"
      ],
      [
        "sli",
        "ce"
      ],
      [
        "sli",
        "des"
      ],
      [
        "sli",
        "ced"
      ],
      [
        "sli",
        "pped"
      ],
      [
        "tri",
        "al"
      ],
      [
        "tri",
        "ed"
      ],
      [
        "tri",
        "bble"
      ],
      [
        "red",
        "uce"
      ],
      [
        "stand",
        "s"
      ],
      [
        "where",
        "as"
      ],
      [
        "Not",
        "ify"
      ],
      [
        "Thank",
        "s"
      ],
      [
        "need",
        "s"
      ],
      [
        "ppen",
        "ing"
      ],
      [
        "under",
        "wear"
      ],
      [
        "?!",
        "?!"
      ],
      [
        "Ah",
        "h"
      ],
      [
        "Blan",
        "c"
      ],
      [
        "Ha",
        "waii"
      ],
      [
        "Ha",
        "ppening"
      ],
      [
        "Just",
        "ice"
      ],
      [
        "Lo",
        "st"
      ],
      [
        "Lo",
        "is"
      ],
      [
        "Lo",
        "bster"
      ],
      [
        "Pr",
        "ison"
      ],
      [
        "ba",
        "le"
      ],
      [
        "ba",
        "sed"
      ],
      [
        "ba",
        "iled"
      ],
      [
        "bre",
        "aths"
      ],
      [
        "bre",
        "lla"
      ],
      [
        "di",
        "vor"
      ],
      [
        "di",
        "amond"
      ],
      [
        "ding",
        "y"
      ],
      [
        "dis",
        "cre"
      ],
      [
        "dis",
        "ap"
      ],
      [
        "dis",
        "comfort"
      ],
      [
        "dis",
        "mant"
      ],
      [
        "dis",
        "cover"
      ],
      [
        "ele",
        "cted"
      ],
      [
        "ele",
        "vated"
      ],
      [
        "ele",
        "ctron"
      ],
      [
        "even",
        "ing"
      ],
      [
        "fa",
        "ther"
      ],
      [
        "fa",
        "vor"
      ],
      [
        "fa",
        "ith"
      ],
      [
        "fl",
        "ake"
      ],
      [
        "fl",
        "atter"
      ],
      [
        "fl",
        "ush"
      ],
      [
        "ler",
        "ating"
      ],
      [
        "men",
        "s"
      ],
      [
        "men",
        "ses"
      ],
      [
        "men",
        "orah"
      ],
      [
        "om",
        "ic"
      ],
      [
        "pr",
        "ofessor"
      ],
      [
        "pr",
        "ised"
      ],
      [
        "pr",
        "ofess"
      ],
      [
        "pr",
        "icing"
      ],
      [
        "pr",
        "uny"
      ],
      [
        "sy",
        "nch"
      ],
      [
        "sy",
        "stem"
      ],
      [
        "sup",
        "erst"
      ],
      [
        "sup",
        "portive"
      ],
      [
        "show",
        "er"
      ],
      [
        "show",
        "ing"
      ],
      [
        "tr",
        "ack"
      ],
      [
        "tr",
        "ash"
      ],
      [
        "tr",
        "unk"
      ],
      [
        "inv",
        "ent"
      ],
      [
        "inv",
        "ite"
      ],
      [
        "inv",
        "iting"
      ],
      [
        "inst",
        "rument"
      ],
      [
        "ane",
        "cdo"
      ],
      [
        "ang",
        "ers"
      ],
      [
        "leg",
        "s"
      ],
      [
        "hear",
        "ing"
      ],
      [
        "key",
        "s"
      ],
      [
        "life",
        "guard"
      ],
      [
        "happen",
        "ing"
      ],
      [
        "actu",
        "al"
      ],
      [
        "feel",
        "s"
      ],
      [
        "feel",
        "ers"
      ],
      [
        "open",
        "s"
      ],
      [
        "open",
        "ing"
      ],
      [
        "every",
        "day"
      ],
      [
        "clu",
        "es"
      ],
      [
        "fore",
        "ver"
      ],
      [
        "fore",
        "igner"
      ],
      [
        "Al",
        "so"
      ],
      [
        "Al",
        "right"
      ],
      [
        "Al",
        "most"
      ],
      [
        "Al",
        "bert"
      ],
      [
        "Ex",
        "actly"
      ],
      [
        "Is",
        "rael"
      ],
      [
        "Mar",
        "s"
      ],
      [
        "Mar",
        "ry"
      ],
      [
        "Mar",
        "ion"
      ],
      [
        "Mar",
        "vel"
      ],
      [
        "Ra",
        "iders"
      ],
      [
        "St",
        "an"
      ],
      [
        "St",
        "ick"
      ],
      [
        "St",
        "ation"
      ],
      [
        "St",
        "reet"
      ],
      [
        "aw",
        "are"
      ],
      [
        "aw",
        "ful"
      ],
      [
        "br",
        "and"
      ],
      [
        "br",
        "own"
      ],
      [
        "br",
        "ought"
      ],
      [
        "book",
        "s"
      ],
      [
        "cre",
        "ated"
      ],
      [
        "cas",
        "m"
      ],
      [
        "cas",
        "ual"
      ],
      [
        "cut",
        "e"
      ],
      [
        "cut",
        "ie"
      ],
      [
        "dum",
        "my"
      ],
      [
        "dum",
        "ps"
      ],
      [
        "fic",
        "tion"
      ],
      [
        "gle",
        "d"
      ],
      [
        "hop",
        "eless"
      ],
      [
        "im",
        "port"
      ],
      [
        "im",
        "mediate"
      ],
      [
        "king",
        "dom"
      ],
      [
        "mar",
        "quee"
      ],
      [
        "mag",
        "ellan"
      ],
      [
        "pu",
        "bl"
      ],
      [
        "pu",
        "dding"
      ],
      [
        "pen",
        "icill"
      ],
      [
        "pie",
        "ce"
      ],
      [
        "pie",
        "ces"
      ],
      [
        "pick",
        "y"
      ],
      [
        "sing",
        "le"
      ],
      [
        "sound",
        "ed"
      ],
      [
        "tru",
        "e"
      ],
      [
        "tru",
        "th"
      ],
      [
        "vi",
        "x"
      ],
      [
        "vi",
        "gilante"
      ],
      [
        "thre",
        "w"
      ],
      [
        "init",
        "y"
      ],
      [
        "lic",
        "ated"
      ],
      [
        "list",
        "en"
      ],
      [
        "ham",
        "per"
      ],
      [
        "cho",
        "sen"
      ],
      [
        "cho",
        "colate"
      ],
      [
        "char",
        "ge"
      ],
      [
        "char",
        "ming"
      ],
      [
        "week",
        "s"
      ],
      [
        "moment",
        "s"
      ],
      [
        "poin",
        "ts"
      ],
      [
        "poin",
        "tless"
      ],
      [
        "post",
        "mens"
      ],
      [
        "exc",
        "use"
      ],
      [
        "exc",
        "iting"
      ],
      [
        "cramp",
        "y"
      ],
      [
        "wonder",
        "ing"
      ],
      [
        "pictu",
        "re"
      ],
      [
        ",\"",
        "</"
      ],
      [
        "12",
        "0"
      ],
      [
        "12",
        "th"
      ],
      [
        "An",
        "swer"
      ],
      [
        "An",
        "gel"
      ],
      [
        "As",
        "suming"
      ],
      [
        "Ca",
        "esar"
      ],
      [
        "Car",
        "rey"
      ],
      [
        "Dr",
        "agons"
      ],
      [
        "Jew",
        "s"
      ],
      [
        "Sp",
        "ace"
      ],
      [
        "Sp",
        "anish"
      ],
      [
        "Sp",
        "rings"
      ],
      [
        "See",
        "ms"
      ],
      [
        "ali",
        "en"
      ],
      [
        "bl",
        "ood"
      ],
      [
        "bl",
        "unt"
      ],
      [
        "bus",
        "y"
      ],
      [
        "bus",
        "iness"
      ],
      [
        "bun",
        "ny"
      ],
      [
        "bra",
        "ve"
      ],
      [
        "bur",
        "st"
      ],
      [
        "bur",
        "ned"
      ],
      [
        "bur",
        "rito"
      ],
      [
        "cer",
        "vix"
      ],
      [
        "cent",
        "ury"
      ],
      [
        "corn",
        "ucop"
      ],
      [
        "dr",
        "unk"
      ],
      [
        "dea",
        "f"
      ],
      [
        "dea",
        "th"
      ],
      [
        "dea",
        "ths"
      ],
      [
        "fin",
        "al"
      ],
      [
        "fin",
        "ed"
      ],
      [
        "fin",
        "ish"
      ],
      [
        "fer",
        "ence"
      ],
      [
        "fre",
        "quented"
      ],
      [
        "fam",
        "ous"
      ],
      [
        "fam",
        "ily"
      ],
      [
        "fam",
        "iliar"
      ],
      [
        "flo",
        "or"
      ],
      [
        "flo",
        "ssing"
      ],
      [
        "flo",
        "ppy"
      ],
      [
        "gn",
        "iz"
      ],
      [
        "gar",
        "age"
      ],
      [
        "gar",
        "bage"
      ],
      [
        "gar",
        "gled"
      ],
      [
        "hy",
        "pothetic"
      ],
      [
        "hy",
        "giene"
      ],
      [
        "hur",
        "tling"
      ],
      [
        "hang",
        "s"
      ],
      [
        "hang",
        "ing"
      ],
      [
        "kid",
        "ding"
      ],
      [
        "kick",
        "ing"
      ],
      [
        "lt",
        "ant"
      ],
      [
        "las",
        "agna"
      ],
      [
        "ph",
        "ine"
      ],
      [
        "rup",
        "tured"
      ],
      [
        "sar",
        "castic"
      ],
      [
        "smo",
        "kes"
      ],
      [
        "sad",
        "dle"
      ],
      [
        "tou",
        "ch"
      ],
      [
        "tou",
        "pee"
      ],
      [
        "tou",
        "ches"
      ],
      [
        "tion",
        "ally"
      ],
      [
        "tion",
        "ary"
      ],
      [
        "tast",
        "e"
      ],
      [
        "tast",
        "es"
      ],
      [
        "tast",
        "eless"
      ],
      [
        "walk",
        "ing"
      ],
      [
        "walk",
        "ie"
      ],
      [
        "inter",
        "course"
      ],
      [
        "inter",
        "fac"
      ],
      [
        "inter",
        "ference"
      ],
      [
        "read",
        "ing"
      ],
      [
        "stru",
        "ggl"
      ],
      [
        "meet",
        "ing"
      ],
      [
        "meant",
        "ime"
      ],
      [
        "hea",
        "vens"
      ],
      [
        "head",
        "hun"
      ],
      [
        "liar",
        "s"
      ],
      [
        "fort",
        "unate"
      ],
      [
        "dev",
        "il"
      ],
      [
        "sur",
        "gery"
      ],
      [
        "sur",
        "geon"
      ],
      [
        "sur",
        "prised"
      ],
      [
        "comp",
        "any"
      ],
      [
        "comp",
        "iling"
      ],
      [
        "comp",
        "licated"
      ],
      [
        "boy",
        "friend"
      ],
      [
        "possi",
        "ble"
      ],
      [
        "experiment",
        "ing"
      ],
      [
        "pres",
        "ent"
      ],
      [
        "Some",
        "body"
      ],
      [
        "build",
        "ing"
      ],
      [
        "build",
        "ings"
      ],
      [
        "Does",
        "n"
      ],
      [
        "supp",
        "ly"
      ],
      [
        "Exc",
        "ellent"
      ],
      [
        "penis",
        "es"
      ],
      [
        "initi",
        "al"
      ],
      [
        "initi",
        "ating"
      ],
      [
        "initi",
        "ated"
      ],
      [
        "suggest",
        "s"
      ],
      [
        "question",
        "s"
      ],
      [
        "Ar",
        "k"
      ],
      [
        "Ar",
        "abia"
      ],
      [
        "Any",
        "way"
      ],
      [
        "Bon",
        "o"
      ],
      [
        "Bon",
        "nie"
      ],
      [
        "Co",
        "me"
      ],
      [
        "Co",
        "llect"
      ],
      [
        "Del",
        "hi"
      ],
      [
        "Del",
        "vecch"
      ],
      [
        "Fr",
        "aggle"
      ],
      [
        "Fr",
        "ankly"
      ],
      [
        "Go",
        "th"
      ],
      [
        "Ju",
        "lie"
      ],
      [
        "Ju",
        "dy"
      ],
      [
        "Lord",
        "s"
      ],
      [
        "Ma",
        "xwell"
      ],
      [
        "Pl",
        "us"
      ],
      [
        "Pl",
        "acement"
      ],
      [
        "Red",
        "eriv"
      ],
      [
        "Sa",
        "me"
      ],
      [
        "Sa",
        "uv"
      ],
      [
        "Sar",
        "castic"
      ],
      [
        "Sar",
        "casm"
      ],
      [
        "af",
        "ter"
      ],
      [
        "aut",
        "s"
      ],
      [
        "aver",
        "age"
      ],
      [
        "apart",
        "ment"
      ],
      [
        "apart",
        "ments"
      ],
      [
        "bro",
        "ke"
      ],
      [
        "bro",
        "ther"
      ],
      [
        "cha",
        "li"
      ],
      [
        "cam",
        "eras"
      ],
      [
        "clo",
        "set"
      ],
      [
        "clo",
        "thes"
      ],
      [
        "du",
        "des"
      ],
      [
        "du",
        "fus"
      ],
      [
        "dir",
        "ty"
      ],
      [
        "dir",
        "tiest"
      ],
      [
        "dro",
        "p"
      ],
      [
        "dro",
        "ve"
      ],
      [
        "dare",
        "d"
      ],
      [
        "dare",
        "devil"
      ],
      [
        "dres",
        "sed"
      ],
      [
        "dres",
        "ses"
      ],
      [
        "eg",
        "gs"
      ],
      [
        "fight",
        "ing"
      ],
      [
        "fur",
        "nit"
      ],
      [
        "found",
        "ation"
      ],
      [
        "fla",
        "il"
      ],
      [
        "gen",
        "re"
      ],
      [
        "gen",
        "ius"
      ],
      [
        "ggl",
        "ers"
      ],
      [
        "hun",
        "gry"
      ],
      [
        "lad",
        "y"
      ],
      [
        "lad",
        "ies"
      ],
      [
        "mach",
        "inery"
      ],
      [
        "net",
        "work"
      ],
      [
        "pin",
        "s"
      ],
      [
        "pri",
        "de"
      ],
      [
        "pri",
        "vile"
      ],
      [
        "pop",
        "ular"
      ],
      [
        "pill",
        "ows"
      ],
      [
        "sl",
        "ow"
      ],
      [
        "sl",
        "ash"
      ],
      [
        "sis",
        "sy"
      ],
      [
        "swe",
        "et"
      ],
      [
        "swe",
        "ater"
      ],
      [
        "swi",
        "m"
      ],
      [
        "snow",
        "flake"
      ],
      [
        "send",
        "ing"
      ],
      [
        "tit",
        "le"
      ],
      [
        "vid",
        "ed"
      ],
      [
        "vie",
        "w"
      ],
      [
        "wast",
        "ed"
      ],
      [
        "zer",
        "o"
      ],
      [
        "inclu",
        "de"
      ],
      [
        "inclu",
        "ding"
      ],
      [
        "resu",
        "med"
      ],
      [
        "resu",
        "ltant"
      ],
      [
        "theor",
        "y"
      ],
      [
        "toile",
        "t"
      ],
      [
        "toile",
        "ts"
      ],
      [
        "str",
        "ange"
      ],
      [
        "str",
        "angers"
      ],
      [
        "star",
        "ing"
      ],
      [
        "stay",
        "ed"
      ],
      [
        "meat",
        "y"
      ],
      [
        "learn",
        "ed"
      ],
      [
        "become",
        "s"
[...]
