{
  "token2id": {
    "deaf": 2822,
    "May": 440,
    "Scotty": 3118,
    "spleen": 2516,
    "clips": 3143,
    "infect": 2003,
    "tak": 1924,
    "prob": 341,
    "Sar": 1051,
    "widen": 2201,
    "gargled": 2839,
    "gotten": 2366,
    "slice": 2640,
    "feel": 637,
    "nightclub": 3347,
    "vie": 1165,
    "ppy": 2506,
    "eal": 1738,
    "dresses": 2941,
    "ight": 202,
    "ump": 1303,
    "says": 958,
    "casm": 2749,
    "conclu": 2387,
    "sees": 2098,
    "On": 498,
    "swi": 1155,
    "Ben": 1508,
    "pre": 303,
    "complex": 3000,
    "ucop": 1940,
    "rs": 700,
    "mb": 842,
    "atch": 394,
    "stem": 2070,
    "cheer": 2474,
    "walk": 864,
    "Some": 961,
    "lor": 1810,
    "skir": 1913,
    "pricing": 2696,
    "saying": 959,
    "ys": 1975,
    "u": 69,
    "fence": 1761,
    "es": 118,
    "party": 974,
    "tomorr": 2056,
    "whil": 2161,
    "short": 2512,
    "divorced": 3360,
    "clo": 1074,
    "ofin": 2129,
    "Pop": 1615,
    "usually": 2289,
    "Water": 1659,
    "by": 411,
    "concerned": 3326,
    "sissy": 2962,
    "go": 108,
    "hoo": 1779,
    "recogniz": 3252,
    "bought": 1068,
    "when": 339,
    "anky": 2468,
    "means": 938,
    "ced": 581,
    "pocket": 2447,
    "hint": 3170,
    "developing": 3319,
    "ble": 580,
    "known": 2272,
    "buash": 2547,
    "Which": 2252,
    "costu": 1242,
    "Marvel": 2736,
    "life": 630,
    "ster": 1196,
    "inat": 1992,
    "Zur": 1662,
    "Wal": 1656,
    "\"\"": 1481,
    "spe": 1901,
    "sect": 2101,
    "loyal": 2280,
    "py": 1867,
    "bit": 800,
    "Like": 1434,
    "slipped": 2643,
    "fur": 1101,
    "referring": 2041,
    "allow": 1227,
    "hero": 2324,
    "inside": 867,
    "You": 157,
    "rubbing": 3004,
    "ofessor": 1009,
    "Chandler": 962,
    "ls": 837,
    "secre": 2102,
    "dependent": 1421,
    "Bernadet": 565,
    "any": 266,
    "tured": 2382,
    "cornucop": 2820,
    "immediate": 2759,
    "anymore": 941,
    "toupee": 2855,
    "tequ": 2412,
    "couch": 971,
    "torna": 2057,
    "stay": 1198,
    "bble": 1692,
    "sister": 1007,
    "under": 563,
    "promise": 2997,
    "kitchen": 1453,
    "to": 90,
    "Good": 1026,
    "thoughtful": 1338,
    "conversation": 2393,
    "pant": 696,
    "il": 344,
    "naked": 917,
    "bro": 1066,
    "beer": 720,
    "they": 283,
    "gon": 252,
    "medical": 2568,
    "Mars": 2733,
    "planning": 1424,
    "Phir": 3100,
    "clues": 2724,
    "lebr": 2122,
    "greasy": 2501,
    "witch": 1967,
    "Turned": 3127,
    "ities": 2082,
    "llect": 2063,
    "ere": 114,
    "apartment": 2924,
    "ton": 1916,
    "office": 1306,
    "seeing": 2384,
    "lcome": 1815,
    "emotionally": 3155,
    "liar": 899,
    "Pleased": 1620,
    "penis": 996,
    "colate": 1243,
    "nts": 845,
    "igner": 2632,
    "littered": 2430,
    "initial": 2893,
    "trap": 1344,
    "tri": 523,
    "furniture": 3387,
    "Krista": 1433,
    "exc": 750,
    "orning": 483,
    "felt": 2338,
    "falling": 1447,
    "gle": 679,
    "led": 1215,
    "En": 1543,
    "mediate": 1324,
    "words": 984,
    "Chinese": 2537,
    "vile": 1946,
    "Any": 1016,
    "backward": 2472,
    "slides": 2641,
    "ive": 684,
    "wedding": 3233,
    "tra": 458,
    "ism": 2084,
    "ons": 1186,
    "mir": 1826,
    "Denny": 1538,
    "th": 79,
    "evidence": 3159,
    "qu": 288,
    "bir": 803,
    "wake": 1962,
    "bunny": 2813,
    "Italian": 3315,
    "orge": 1211,
    "cas": 668,
    "aggle": 2361,
    "zz": 1174,
    "staring": 2982,
    "certainly": 1717,
    "enjoy": 566,
    "gotta": 1281,
    "sock": 2194,
    "around": 468,
    "building": 2887,
    "C": 26,
    "depend": 924,
    "guarantee": 3321,
    "cus": 1075,
    "Sad": 1634,
    "psack": 2637,
    "making": 1133,
    "Wol": 795,
    "cin": 1698,
    "me": 96,
    "Hildy": 3082,
    "does": 400,
    "pri": 1143,
    "risky": 3025,
    "scientists": 1475,
    "resultant": 2976,
    "call": 445,
    "women": 2493,
    "might": 365,
    "site": 2561,
    "io": 1113,
    "each": 911,
    "mor": 1130,
    "Lord": 1037,
    "trash": 2705,
    "rument": 2510,
    "opening": 2722,
    "capp": 2300,
    "Virg": 1652,
    "unagi": 3224,
    "profess": 2695,
    "Ja": 1578,
    "switched": 3355,
    "predic": 2491,
    "alk": 227,
    "1": 13,
    "pork": 2608,
    "boy": 946,
    "\u2122": 78,
    "secon": 883,
    "Sauv": 2918,
    "iliar": 1795,
    "Come": 2903,
    "smoking": 1414,
    "ron": 519,
    "can": 179,
    "11": 1484,
    "wonderful": 1396,
    "switch": 1343,
    "ex": 299,
    "pervert": 2375,
    "Twenty": 3128,
    "ess": 399,
    "Regard": 2625,
    "Vegas": 3129,
    "nuclear": 3192,
    "aring": 2092,
    "boson": 2441,
    "here": 230,
    "fine": 1758,
    "wast": 1170,
    "all": 116,
    "difficult": 3029,
    "ered": 903,
    "forever": 2725,
    "teles": 2413,
    "ger": 1107,
    "Does": 975,
    "tells": 2563,
    "ind": 217,
    "ream": 2031,
    "Lovely": 3016,
    "coke": 2210,
    "family": 2831,
    "net": 1135,
    "K": 34,
    "Ok": 1603,
    "beaten": 2146,
    "theoretic": 3260,
    "squishy": 3213,
    "holding": 3003,
    "bor": 1680,
    "gratul": 2630,
    "ears": 2521,
    "pudding": 2764,
    "Kind": 786,
    "beca": 2138,
    "unate": 2294,
    "gglers": 2949,
    "pill": 1147,
    "aton": 2022,
    "fe": 201,
    "tucked": 2383,
    "orn": 338,
    "betwe": 2144,
    "sometimes": 2346,
    "subconscious": 3389,
    "Wi": 1653,
    "whose": 1228,
    "long": 405,
    "Obviously": 1435,
    "dir": 1085,
    "Nu": 1594,
    "account": 2988,
    "pet": 1144,
    "leased": 1330,
    "Take": 1644,
    "synch": 2698,
    "dumps": 2754,
    "nipp": 1138,
    "ER": 1542,
    "luck": 1817,
    "worried": 2400,
    "corner": 1404,
    "laund": 1327,
    "E": 28,
    "incess": 1182,
    "ix": 1114,
    "Ah": 569,
    "dest": 1273,
    "lic": 723,
    "ar": 97,
    "telling": 2564,
    "ee": 446,
    "Gablehauser": 3075,
    "sensitive": 1355,
    "Actu": 1503,
    "Wh": 154,
    "idea": 635,
    "Hawaii": 2658,
    "advanced": 2311,
    "chicken": 2987,
    "bad": 806,
    "way": 265,
    "ltant": 2847,
    "penicillin": 3376,
    "Cwa": 1521,
    "hack": 2158,
    "models": 3190,
    "lectu": 2123,
    "tionally": 2857,
    "ling": 687,
    "ows": 2166,
    "Imag": 1577,
    "reason": 1191,
    "guy": 355,
    "dro": 1086,
    "ppali": 2508,
    "control": 3327,
    "fridge": 3162,
    "al": 122,
    "zy": 1983,
    "ctron": 2569,
    "hardly": 1783,
    "rewup": 2044,
    "post": 749,
    "N": 37,
    "event": 1743,
    "self": 469,
    "ird": 542,
    "pic": 518,
    "requ": 2033,
    "ronized": 3359,
    "Howard": 965,
    "gs": 1106,
    "him": 356,
    "machinery": 2953,
    "selling": 2105,
    "hun": 1112,
    "hearing": 2714,
    "menorahs": 3366,
    "Cho": 1520,
    "duration": 3153,
    "Brit": 1512,
    "solut": 1235,
    "clot": 1713,
    "lima": 2153,
    "wallet": 3232,
    "Pis": 1611,
    "haven": 1225,
    "Geller": 3074,
    "!": 2,
    "discomfort": 2675,
    "mar": 691,
    "ardly": 1272,
    "snowflake": 2966,
    "put": 368,
    "George": 1431,
    "happened": 1376,
    "ously": 2495,
    "dis": 584,
    "ipecac": 3172,
    "itar": 2080,
    "tools": 2432,
    "zer": 1175,
    "enty": 2245,
    "gu": 211,
    "glass": 1335,
    "32": 1492,
    "pu": 694,
    "inese": 2528,
    "colony": 3300,
    "acti": 2206,
    "bitchin": 1403,
    "hits": 1782,
    "back": 296,
    "cocoa": 2218,
    "lon": 345,
    "bitch": 809,
    "itz": 877,
    "thinking": 740,
    "meeting": 2869,
    "Congratul": 3049,
    "Fr": 1022,
    "regu": 1190,
    "beloved": 2142,
    "think": 213,
    "nx": 1846,
    "ations": 755,
    "Dave": 1539,
    "will": 340,
    "chali": 2928,
    "research": 1460,
    "lfill": 2420,
    "ute": 2199,
    "brought": 2746,
    "touches": 2856,
    "air": 1665,
    "sale": 2377,
    "sad": 852,
    "handed": 2606,
    "Oxford": 1436,
    "mag": 693,
    "charge": 2782,
    "tected": 2414,
    "oup": 1179,
    "ding": 583,
    "destroy": 2991,
    ",\"</": 2794,
    "ages": 2357,
    "....": 2347,
    "experimenting": 2884,
    "dinner": 982,
    "dev": 923,
    ")": 7,
    "open": 638,
    "vis": 1945,
    "se": 98,
    "bow": 1682,
    "thought": 428,
    "Ph": 1609,
    "pretty": 554,
    "were": 326,
    "etly": 2233,
    "unstable": 2297,
    "z": 74,
    "puzz": 1385,
    "\u00d5": 75,
    "mood": 1835,
    "cervix": 2818,
    "tiny": 3219,
    "the": 88,
    "Channel": 3007,
    "ared": 2266,
    "iver": 1790,
    "carry": 2582,
    "\"": 3,
    "encouraged": 3268,
    "Indian": 3083,
    "Tod": 1056,
    "ishe": 2086,
    "approach": 3023,
    "century": 2819,
    "Chick": 2532,
    "\"?": 1482,
    "sounds": 1388,
    "ila": 2538,
    "resumed": 2975,
    "us": 177,
    "But": 342,
    "evening": 2681,
    "human": 3169,
    "package": 3199,
    "phine": 2849,
    "Internation": 2598,
    "a": 49,
    "arter": 2353,
    "barn": 1693,
    "Gr": 1554,
    "saddle": 2853,
    "re": 87,
    "tionary": 2858,
    "alread": 2176,
    "cer": 810,
    "cat": 1069,
    "Springs": 2806,
    "ipe": 1793,
    "NAS": 1601,
    "Stewart": 3122,
    "B": 25,
    "initiated": 2895,
    "Listen": 3092,
    "feels": 2719,
    "bill": 1291,
    "lod": 1812,
    "bell": 2137,
    "od": 164,
    "sis": 1152,
    "iss": 1205,
    "ide": 540,
    "art": 218,
    "tling": 1926,
    "swer": 1342,
    "pointless": 2787,
    "thetic": 2046,
    "NASA": 3098,
    "pieces": 2767,
    "Finish": 3068,
    "yeah": 461,
    "even": 587,
    "involved": 3021,
    "guard": 1280,
    "loom": 1816,
    "silly": 3212,
    "live": 474,
    "has": 420,
    "arant": 2094,
    "perfect": 2372,
    "fat": 1749,
    "ning": 1134,
    "earrings": 3006,
    "vanced": 1415,
    "Krist": 1033,
    "clic": 1714,
    "acce": 2205,
    "movement": 2288,
    "cannot": 2291,
    "reco": 2030,
    "as": 103,
    "ually": 1161,
    "pp": 322,
    "ur": 289,
    "ence": 429,
    "Hul": 1569,
    "Hope": 3079,
    "apartments": 2925,
    "course": 488,
    "moment": 734,
    "bing": 1676,
    "end": 222,
    "group": 1352,
    "oria": 2108,
    "rom": 295,
    "O": 38,
    "tribble": 2646,
    "ming": 1129,
    "cre": 667,
    "encour": 2078,
    "puzzle": 1476,
    "stea": 2065,
    "sit": 369,
    "hungry": 2950,
    "temporarily": 3332,
    "ba": 577,
    "ctive": 1081,
    "ber": 578,
    "cr": 444,
    "believe": 722,
    "ca": 181,
    "ving": 373,
    "achute": 2627,
    "husband": 1006,
    "4": 16,
    "sses": 1909,
    "soci": 2196,
    "lodge": 3177,
    "putin": 2559,
    "Iver": 1576,
    "slow": 2960,
    "until": 1468,
    "crispy": 2602,
    "liqu": 2150,
    "cleaning": 3011,
    "decen": 2319,
    "deal": 737,
    "wood": 1966,
    "riend": 294,
    "secret": 3271,
    "bert": 1690,
    "dic": 1719,
    "hel": 627,
    "et": 145,
    "Sell": 1632,
    "ew": 585,
    "awful": 2743,
    "brother": 2927,
    "plan": 954,
    "stic": 716,
    "approximately": 3391,
    "ssing": 937,
    "meaty": 2984,
    "larynx": 3179,
    "porn": 1873,
    "tu": 233,
    "get": 215,
    "vided": 2969,
    "Sa": 1049,
    "deaths": 2824,
    "likes": 2306,
    "pillows": 2959,
    "forklift": 3302,
    "Be": 407,
    "picky": 2768,
    "weight": 2185,
    "ary": 717,
    "gift": 1451,
    "Ow": 1605,
    "Son": 1627,
    "stop": 751,
    "rael": 2408,
    "azing": 1672,
    "celon": 2332,
    "joke": 2554,
    "broke": 2926,
    "ele": 586,
    "umber": 949,
    "based": 2666,
    "forgetting": 1245,
    "pres": 956,
    "--": 493,
    "written": 3238,
    "suck": 2329,
    "rific": 2192,
    "cause": 235,
    "mothers": 2990,
    "ore": 1860,
    "bale": 2665,
    "instead": 989,
    "Gris": 1560,
    "dum": 671,
    "oth": 1859,
    "la": 390,
    "hi": 243,
    "overlords": 3358,
    "white": 2162,
    "Renaiss": 3109,
    "Can": 655,
    "am": 158,
    "socks": 2197,
    "ires": 1794,
    "kind": 513,
    "Koo": 1584,
    "puppet": 1878,
    "accom": 2207,
    "cup": 1707,
    "elle": 2249,
    "choice": 1392,
    "His": 1029,
    "help": 1374,
    "sex": 882,
    "iful": 2283,
    "already": 3289,
    "cen": 1070,
    "maybe": 1328,
    "und": 427,
    "promising": 2998,
    "anal": 2008,
    "comple": 1298,
    "mass": 1839,
    "sing": 702,
    "ruptured": 2850,
    "check": 1308,
    "works": 1347,
    "bucket": 2548,
    "tornado": 3265,
    "Whoa": 2253,
    "often": 2131,
    "nt": 843,
    "che": 297,
    "actica": 2596,
    "drunk": 2821,
    "tub": 2381,
    "sounded": 2770,
    "clear": 1349,
    "eny": 2076,
    "doesn": 758,
    "graduate": 3014,
    "fashion": 1449,
    "three": 998,
    "inion": 1995,
    "rite": 1889,
    "dummy": 2753,
    "learn": 1217,
    "whilst": 3284,
    "join": 2553,
    "What": 219,
    "technic": 2418,
    "dumbed": 1380,
    "point": 1394,
    "trunk": 2706,
    "Houston": 3077,
    "Tell": 1643,
    "lling": 2060,
    "I": 32,
    "power": 1877,
    "covered": 2217,
    "said": 382,
    "rush": 1892,
    "Ha": 571,
    "series": 1387,
    "hamp": 1391,
    "be": 107,
    "ers": 463,
    "tes": 1918,
    "quented": 2462,
    "sl": 1151,
    "lar": 1122,
    "final": 2825,
    "Wheaton": 3132,
    "hadn": 2519,
    "om": 596,
    "zillion": 3240,
    "ei": 673,
    "ety": 1250,
    "Dr": 783,
    "switche": 2611,
    "tou": 855,
    "sch": 1153,
    "out": 121,
    "ear": 333,
    "Same": 2917,
    "ofes": 889,
    "favor": 2683,
    "nothin": 2111,
    "terrib": 2395,
    "Sure": 1054,
    "For": 1023,
    "anybody": 2431,
    "To": 1055,
    "system": 2699,
    "insu": 1996,
    "/": 11,
    "ous": 307,
    "entertaining": 3305,
    "romagnet": 2470,
    "oga": 1864,
    "des": 386,
    "br": 664,
    "ith": 1786,
    "ga": 362,
    "Cra": 1519,
    "We\u0101": 2454,
    "ldon": 906,
    "sa": 232,
    "stad": 2067,
    "Ser": 1050,
    "Fac": 1552,
    "V": 45,
    "livelihood": 2618,
    "ass": 538,
    "new": 329,
    "nice": 1136,
    "inclu": 1181,
    "Doroth": 3057,
    "rn": 599,
    "ane": 615,
    "toge": 2051,
    "could": 298,
    "awkwardness": 3022,
    "ak": 316,
    "apparently": 3404,
    "mile": 1836,
    "cdo": 1704,
    "Next": 3096,
    "Pri": 1613,
    "width": 2203,
    "Veg": 1651,
    "g": 55,
    "ference": 2828,
    "burned": 2816,
    "Ox": 1043,
    "ash": 470,
    "living": 901,
    ">": 22,
    "v": 70,
    "see": 234,
    "drove": 2937,
    "chang": 2169,
    "sist": 853,
    "however": 2351,
    "graders": 3013,
    "Do": 438,
    "owing": 2167,
    "Sweety": 3117,
    "tty": 485,
    "nest": 2302,
    "ter": 238,
    "little": 312,
    "inst": 614,
    "dog": 1247,
    "ris": 848,
    "remember": 3250,
    "amp": 732,
    "person": 743,
    "thra": 1990,
    "Nope": 1253,
    "key": 629,
    "mesto": 2091,
    "ruse": 1885,
    "conclude": 3325,
    "Dic": 1531,
    "un": 180,
    "atter": 869,
    "cket": 1080,
    "Dep": 1534,
    "wer": 1169,
    "cess": 1079,
    "having": 1226,
    "First": 3070,
    "excuse": 2789,
    "manners": 3322,
    "double": 1731,
    "bl": 798,
    "bug": 2544,
    "with": 156,
    "?!?!": 2655,
    "rude": 2509,
    "fice": 1757,
    "yal": 1976,
    "lerating": 2688,
    "waitressing": 2620,
    "Coffee": 1523,
    "Very": 1059,
    "ra": 245,
    "That": 228,
    "superst": 2700,
    "ould": 160,
    "champagne": 3147,
    "esar": 2164,
    "abia": 2231,
    "ion": 185,
    "Li": 1034,
    "diamond": 2671,
    "det": 507,
    "adas": 2308,
    "Chan": 1318,
    "Tale": 3125,
    "wasn": 909,
    "admirable": 3314,
    "ito": 1788,
    "yours": 2270,
    "other": 454,
    "casmoho": 1379,
    "ked": 327,
    "dentist": 1732,
    "Delvecchio": 3384,
    "cake": 1269,
    "iladas": 2539,
    "cop": 1239,
    "Narnia": 3097,
    "yourself": 918,
    "oops": 2183,
    "aper": 576,
    "spontane": 2515,
    "sheep": 2342,
    "father": 2682,
    "af": 1060,
    "fined": 2826,
    "cks": 746,
    "jail": 1801,
    "Street": 2741,
    "bum": 1687,
    "coa": 2209,
    "make": 321,
    "vigilante": 2774,
    "firm": 2604,
    "S": 42,
    "better": 721,
    "death": 2823,
    "model": 1843,
    "have": 153,
    "amusing": 3306,
    "average": 2923,
    "dinosaurs": 3357,
    "ea": 139,
    "there": 198,
    "?!": 568,
    "Nice": 1597,
    "fts": 1760,
    "eating": 1742,
    "Stra": 1639,
    "inia": 1999,
    "pants": 774,
    "Seems": 2807,
    "cappucino": 3312,
    "ason": 887,
    "kli": 1804,
    "health": 3276,
    "opportunity": 3033,
    "rings": 2594,
    "imo": 1791,
    "fect": 1276,
    "icago": 2181,
    "mus": 1829,
    "geons": 2456,
    "fact": 823,
    "brown": 2745,
    "75": 1494,
    "Piscapo": 3102,
    "pot": 2445,
    "alive": 1670,
    "ercial": 1185,
    "leather": 2580,
    "Bing": 1507,
    "opens": 2721,
    "agna": 2359,
    "itche": 2081,
    "advent": 2309,
    "manner": 2368,
    "stream": 2074,
    "ok": 1139,
    "Oop": 1607,
    "xiety": 1974,
    "you": 86,
    "like": 183,
    "3": 15,
    "Fy": 1550,
    "gone": 827,
    "pend": 847,
    "paper": 699,
    "knapsack": 3174,
    "reading": 2867,
    "headhunter": 3383,
    "anything": 940,
    "sugge": 927,
    "and": 106,
    "its": 431,
    "supportive": 2701,
    "send": 1157,
    "Sarcastic": 2919,
    "requires": 3254,
    "easy": 1745,
    "going": 269,
    "port": 764,
    "tlestar": 2450,
    "struggling": 3382,
    "Horn": 1567,
    "Ind": 1575,
    "stand": 533,
    "mis": 690,
    "ited": 1201,
    "wa": 374,
    "told": 620,
    "vous": 1166,
    "foreigner": 2726,
    "ol": 453,
    "pe": 254,
    "cell": 1706,
    "Res": 1624,
    "wor": 239,
    "come": 311,
    "In": 439,
    "press": 2489,
    "backs": 2471,
    "trouble": 1371,
    "sup": 601,
    "last": 688,
    "pts": 1875,
    "time": 273,
    "minutes": 981,
    "\"--": 1483,
    "ly": 155,
    "Sounds": 1440,
    "umm": 948,
    "velo": 2114,
    "lla": 2059,
    "abl": 1248,
    "his": 388,
    "cho": 728,
    "pel": 1871,
    "Ofcourse": 2622,
    "D": 27,
    "plummet": 2488,
    "St": 661,
    "du": 1083,
    "Sin": 1626,
    "blood": 2809,
    "casual": 2750,
    "equ": 1741,
    "dashboard": 3154,
    "aned": 2009,
    "anecdotes": 3370,
    "hind": 831,
    "kno": 1803,
    "cted": 1325,
    "talking": 745,
    "di": 582,
    "ard": 186,
    "insult": 3243,
    "celebrity": 3320,
    "multi": 2522,
    "looks": 1295,
    "Factory": 3069,
    "sorry": 313,
    "din": 505,
    "interfacing": 3381,
    "obse": 1866,
    "gh": 115,
    "onard": 308,
    "breakfast": 1426,
    "act": 433,
    "Us": 1648,
    "independent": 2005,
    "ood": 378,
    "face": 1759,
    "dating": 1729,
    "amazing": 2258,
    "wi": 133,
    "uncle": 1268,
    "International": 3354,
    "science": 770,
    "hr": 1775,
    "how": 216,
    "Pl": 1044,
    "spontaneously": 3342,
    "<unk>": 1,
    "owitz": 904,
    "ush": 920,
    "dea": 817,
    "ust": 136,
    "keys": 2715,
    "supposed": 3028,
    "flatter": 2686,
    "worn": 2398,
    "Jer": 1579,
    "vor": 1163,
    "livery": 2151,
    "was": 135,
    "etings": 2234,
    "accommodate": 3298,
    "CD": 1514,
    "too": 268,
    "buildings": 2888,
    "W": 46,
    "eye": 2585,
    "one": 168,
    "P": 39,
    "catching": 1715,
    "treed": 3221,
    "bathroom": 3017,
    "kill": 1807,
    "hop": 680,
    "import": 2758,
    "start": 395,
    "ude": 1936,
    "Excellent": 2891,
    "flo": 822,
    "arche": 2095,
    "fun": 418,
    "no": 100,
    "Pan": 1610,
    "eless": 1367,
    "fir": 448,
    "Galactica": 3073,
    "una": 1934,
    "Hi": 1028,
    "suggest": 1010,
    "Bo": 1505,
    "sw": 456,
    "longer": 1331,
    "parachute": 3197,
    "een": 1736,
    "dismant": 2676,
    "ri": 130,
    "sor": 264,
    "fair": 1368,
    "liquor": 3281,
    "chim": 2170,
    "See": 794,
    "Umm": 1649,
    "religious": 3251,
    "store": 957,
    "half": 726,
    "prised": 2694,
    "else": 641,
    "Hello": 1432,
    "down": 332,
    "interfac": 2865,
    "ings": 1193,
    "Then": 2271,
    "vix": 2773,
    "operating": 2341,
    "Squ": 1638,
    "yest": 1978,
    "topic": 2052,
    "Einst": 1549,
    "beam": 1220,
    "Ta": 1641,
    "ford": 1244,
    "sarcastic": 2851,
    "always": 492,
    "lay": 1811,
    "knew": 1808,
    "Thank": 547,
    "les": 626,
    "high": 1287,
    "times": 1301,
    "her": 194,
    "gar": 826,
    "overheard": 2635,
    "strange": 2980,
    "Watching": 1660,
    "leaned": 2125,
    "later": 1820,
    "ugly": 1942,
    "Palm": 3103,
    "sunbrella": 3208,
    "run": 1884,
    "downhill": 2520,
    "Jo": 408,
    "degrees": 3317,
    "nit": 1847,
    "cocon": 2213,
    "tastes": 2860,
    "happen": 631,
    "watch": 709,
    "savings": 3323,
    "phone": 1411,
    "toast": 2050,
    "find": 361,
    "reat": 870,
    "dingy": 2672,
    "hur": 832,
    "classes": 2600,
    "Nobody": 2237,
    "if": 174,
    "stomach": 2492,
    "Red": 1047,
    "Depot": 3056,
    "woods": 3236,
    "Gis": 1555,
    "toilet": 2978,
    "Poppins": 3106,
    "bra": 807,
    "Con": 1516,
    "fl": 590,
    "Julie": 2910,
    "epinep": 2499,
    "Ro": 500,
    "initi": 999,
    "worst": 2399,
    "garbage": 2838,
    "changing": 3286,
    "ry": 176,
    "skedaddle": 3214,
    "odel": 1259,
    "ah": 1061,
    "ef": 1734,
    "Rachel": 1002,
    "gy": 825,
    "inity": 2776,
    "x": 72,
    "mon": 452,
    "ose": 221,
    "\u20ac\u2122": 1988,
    "ild": 592,
    "gel": 1770,
    "eat": 1093,
    "de": 193,
    "...": 402,
    "economic": 3156,
    "Miss": 1591,
    "ben": 1677,
    "ify": 2282,
    "them": 350,
    "Gable": 1559,
    "dge": 1725,
    "fus": 1756,
    "erman": 2015,
    "q": 65,
    "ness": 1854,
    "iz": 1115,
    "Walmart": 3133,
    "news": 753,
    "notion": 2290,
    "bun": 805,
    "comic": 1297,
    "sarcasmoho": 1413,
    "burrito": 2817,
    "chic": 2168,
    "ues": 860,
    "Also": 2727,
    "idiot": 3303,
    "sc": 335,
    "Electromagnet": 3065,
    "terribly": 3329,
    "mach": 1132,
    "Twent": 1647,
    "dare": 1087,
    "street": 1199,
    "ately": 2452,
    "ich": 1117,
    "rind": 1886,
    "hooked": 3171,
    "tiest": 2343,
    "took": 942,
    "BFF": 3042,
    "university": 3311,
    "lot": 636,
    "Y": 47,
    "ki": 1802,
    "Right": 1048,
    "telephone": 2417,
    "This": 733,
    "meet": 879,
    "And": 214,
    "third": 611,
    "ies": 512,
    "wron": 1969,
    "line": 1126,
    "20": 1489,
    "growing": 2631,
    "anecdo": 2711,
    "ft": 675,
    "Nooo": 768,
    "min": 364,
    "T": 43,
    "god": 1222,
    "M": 36,
    "sitive": 964,
    "rent": 2038,
    "space": 752,
    "pregnant": 1473,
    "company": 2879,
    "gre": 319,
    "mint": 2556,
    "jump": 1800,
    "more": 380,
    "man": 226,
    "demented": 3316,
    "putting": 2560,
    "addle": 2310,
    "into": 712,
    "emo": 1739,
    "met": 2090,
    "begun": 2143,
    "End": 1546,
    "uro": 1933,
    "lecture": 3275,
    "front": 1450,
    "network": 2954,
    "per": 231,
    "rit": 1150,
    "wandered": 3231,
    "pped": 2507,
    "Leonard": 314,
    "truth": 2772,
    "flat": 1369,
    "wers": 1968,
    "gazara": 3349,
    ".": 10,
    "carousel": 3352,
    "food": 678,
    "concer": 2388,
    "De": 1529,
    "Look": 787,
    "word": 551,
    "i": 57,
    "hamper": 2779,
    "Now": 1595,
    "mur": 1831,
    "Lo": 574,
    "catch": 1710,
    "stu": 376,
    "fam": 821,
    "den": 816,
    "Sp": 793,
    "hygiene": 2841,
    "\u0101": 76,
    "been": 398,
    "weird": 2187,
    "lapel": 2574,
    "hy": 829,
    "DANGER": 3063,
    "eggs": 2942,
    "vin": 1944,
    "kay": 225,
    "sli": 522,
    "dust": 1723,
    "redefined": 3253,
    "ool": 632,
    "ouse": 612,
    "Go": 1025,
    "Joey": 760,
    "fear": 2335,
    "Ar": 1015,
    "cut": 669,
    "ouble": 865,
    "sco": 1898,
    "sill": 1903,
    "robot": 2244,
    "tin": 1915,
    "ggle": 1772,
    "ratching": 1893,
    "suppose": 1427,
    "Prison": 2664,
    "give": 642,
    "Nex": 1598,
    "econ": 1740,
    "concepts": 2394,
    "Even": 1548,
    "heard": 892,
    "id": 142,
    "mu": 334,
    "astic": 2428,
    "handle": 2605,
    "ake": 196,
    "tive": 928,
    "telescope": 3331,
    "ferring": 1406,
    "cocaine": 1466,
    "ston": 2064,
    "nam": 1851,
    "vity": 1949,
    "ps": 517,
    "That\u00d5s": 1282,
    "fictional": 3372,
    "w": 71,
    "supply": 2890,
    "ertainly": 1425,
    "look": 263,
    "stone": 2066,
    "wears": 1345,
    "establ": 1333,
    "wigs": 2202,
    "ire": 1116,
    "invol": 1373,
    "hire": 2404,
    "sun": 1899,
    "Tuesday": 1442,
    "zar": 1986,
    "Whats": 2355,
    "12": 776,
    "feet": 2337,
    "ther": 241,
    "Hes": 1564,
    "appro": 1400,
    "ll": 91,
    "arily": 2096,
    "14": 1485,
    "Ab": 1498,
    "inflamed": 3245,
    "astronauts": 3335,
    "friends": 967,
    "younger": 2026,
    "mart": 1131,
    "people": 482,
    "um": 281,
    "sum": 2327,
    "murder": 3183,
    "Jew": 785,
    "Mill": 1590,
    "their": 466,
    "heal": 2133,
    "gious": 2481,
    "gra": 1771,
    "vens": 2466,
    "wan": 459,
    "sation": 1908,
    "minute": 767,
    "ches": 2473,
    "thm": 1989,
    "Ark": 2898,
    "land": 1123,
    "home": 950,
    "roy": 2238,
    "Chaucer": 3050,
    "rying": 435,
    "accident": 1465,
    "pace": 1874,
    "enjoyed": 1360,
    "formed": 2222,
    "venus": 2467,
    "card": 1708,
    "aten": 2023,
    "Answer": 2797,
    "saturdays": 3205,
    "hold": 1304,
    "Dungeons": 3060,
    "tter": 524,
    "tasteless": 2861,
    "bums": 3141,
    "rinds": 3202,
    "great": 403,
    "oh": 367,
    "made": 1383,
    "Station": 2740,
    "we": 128,
    "ual": 1932,
    "lie": 432,
    "Wil": 1658,
    "John": 3089,
    "cried": 1712,
    "Cause": 1397,
    "uda": 1939,
    "ses": 623,
    "alien": 2808,
    "arent": 2268,
    "Carol": 1398,
    "ison": 2085,
    "Box": 3043,
    "year": 462,
    "med": 377,
    "rup": 849,
    "Lois": 2662,
    "antentheor": 2281,
    "bster": 1695,
    "charming": 2783,
    "cony": 933,
    "intercourse": 2864,
    "nation": 1853,
    "scary": 2524,
    "com": 271,
    "Stan": 2738,
    "ave": 1062,
    "fin": 818,
    "someone": 639,
    "ition": 1202,
    "cheesecake": 3337,
    "infla": 2002,
    "wasted": 2971,
    "ange": 1184,
    "Marion": 2735,
    "lady": 2951,
    "nearly": 2304,
    "original": 1462,
    "ck": 261,
    "uh": 347,
    "oom": 476,
    "peek": 2423,
    "write": 1971,
    "gl": 419,
    "sked": 1906,
    "dufus": 2933,
    "Office": 2623,
    "possibilit": 1423,
    "figure": 3009,
    "ler": 593,
    "feed": 2336,
    "lan": 422,
    "flail": 2946,
    "ago": 501,
    "Jose": 1580,
    "wear": 477,
    "week": 731,
    "ishment": 2530,
    "winner": 3229,
    "funny": 973,
    "maker": 3184,
    "dif": 1088,
    "ject": 1799,
    "socio": 3292,
    "40": 1493,
    "won": 460,
    "rist": 908,
    "slightly": 1356,
    "sag": 1900,
    "castic": 1270,
    "gr": 509,
    "pite": 1148,
    "dirty": 2934,
    "fort": 912,
    "plane": 2486,
    "then": 465,
    "Chee": 1526,
    "</": 653,
    "thank": 711,
    "wrong": 3237,
    "books": 2747,
    "important": 3373,
    "hope": 994,
    "edito": 2178,
    "loaf": 2279,
    "ell": 152,
    "got": 223,
    "show": 602,
    "Th": 169,
    "Sarcasm": 2920,
    "thre": 710,
    "Are": 779,
    "o": 63,
    "Jerry": 3087,
    "Did": 1019,
    "milk": 3185,
    "swallowed": 2610,
    "bloated": 3140,
    "hands": 1341,
    "arms": 2097,
    "inery": 2001,
    "ali": 797,
    "Great": 1027,
    "wanna": 490,
    "Einstein": 3067,
    "Jewish": 1399,
    "needs": 2652,
    "geon": 2455,
    "donuts": 2264,
    "rasor": 3200,
    "sub": 1275,
    "elevated": 2679,
    "eBay": 1746,
    "ipp": 1119,
    "went": 708,
    "cheese": 2476,
    "Trust": 3126,
    "hay": 1778,
    "edge": 2177,
    "ths": 609,
    "Hild": 1571,
    "Cold": 1524,
    "gravy": 3167,
    "ful": 591,
    "shot": 3211,
    "hernia": 2326,
    "ppen": 558,
    "rib": 907,
    "Ra": 660,
    "tast": 858,
    "ance": 714,
    "ica": 1233,
    "atul": 2024,
    "rito": 2191,
    "floppy": 2835,
    "tear": 2411,
    "!!": 652,
    "<pad>": 0,
    "Virginia": 3130,
    "divor": 2670,
    "allowed": 1463,
    "iling": 1319,
    "lin": 1809,
    "testic": 1289,
    "zit": 1985,
    "both": 2437,
    "inha": 1993,
    "okay": 516,
    "involve": 3020,
    "ank": 292,
    "pictu": 769,
    "wad": 1961,
    "iting": 878,
    "oa": 1858,
    "discover": 2677,
    "wanted": 2401,
    "liked": 2305,
    "dinfast": 1350,
    "stru": 874,
    "mind": 1830,
    "irg": 1251,
    "lut": 1124,
    "Show": 1636,
    "suit": 2328,
    "Stop": 3115,
    "Lucky": 1588,
    "cold": 2211,
    "mas": 1824,
    "forward": 1246,
    "popular": 2958,
    "odate": 2269,
    "magical": 1384,
    "oral": 2107,
    "Rock": 2626,
    "Professor": 1363,
    "had": 328,
    "ond": 2019,
    "gor": 1764,
    "semin": 2099,
    "sas": 1897,
    "Pro": 1614,
    "Maxwell": 2913,
    "angers": 2712,
    "almost": 1231,
    "fast": 677,
    "epinephrine": 3341,
    "heavy": 1418,
    "headhun": 2872,
    "lit": 262,
    "Regarding": 3356,
    "comfort": 1299,
    "turns": 990,
    "wondering": 2792,
    "coconut": 3299,
    "hang": 833,
    "writ": 1970,
    "chicked": 3285,
    "rogue": 2243,
    "on": 84,
    "agnet": 2362,
    "possibility": 1478,
    "of": 104,
    "League": 3091,
    "ile": 389,
    "ss": 256,
    "sp": 325,
    "ut": 132,
    "is": 95,
    "ru": 323,
    "ional": 2307,
    "dinosa": 2629,
    "Jamesto": 3086,
    "king": 686,
    "wait": 486,
    "stling": 2071,
    "tre": 1917,
    "mant": 1828,
    "sar": 850,
    "it": 94,
    "manager": 2369,
    "keep": 473,
    "ting": 457,
    "ap": 796,
    "star": 1197,
    "yoga": 1982,
    "doo": 1720,
    "Bat": 1506,
    "Car": 782,
    "compiling": 2880,
    "menses": 2690,
    "scratching": 2525,
    "fut": 1751,
    "penicill": 2765,
    "either": 773,
    "eventually": 3158,
    "taken": 3223,
    "inviting": 2709,
    "slash": 2961,
    "lf": 253,
    "devil": 2875,
    "convin": 2392,
    "ti": 205,
    "fulfilling": 3406,
    "massages": 3188,
    "depressed": 1469,
    "ellan": 2250,
    "in": 81,
    "ght": 125,
    "bag": 1067,
    "vecch": 2117,
    "ian": 1787,
    "tru": 705,
    "Thanks": 2651,
    "favorite": 3364,
    "ang": 616,
    "palace": 3198,
    "Quantentheorie": 3401,
    "mm": 1127,
    "probably": 561,
    "smo": 851,
    "wonder": 765,
    "wn": 1168,
    "possible": 2883,
    "crafts": 3145,
    "trial": 2644,
    "suggests": 2896,
    "rede": 2032,
    "l": 60,
    "ct": 385,
    "c": 51,
    "are": 163,
    "Number": 1600,
    "daredevil": 2939,
    "defence": 2321,
    "miles": 3186,
    "chew": 1307,
    "jogging": 3350,
    "school": 1458,
    "Phoebe": 1437,
    "Le": 274,
    "discre": 2673,
    "aware": 2742,
    "ant": 172,
    "Notify": 2650,
    "Saying": 3116,
    "ac": 134,
    "tally": 1923,
    "weren": 1459,
    "poin": 748,
    "tomb": 2054,
    "ucer": 1938,
    "f": 54,
    "device": 1420,
    "date": 672,
    "lip": 2149,
    "veling": 2115,
    "nia": 1855,
    "nobody": 718,
    "parents": 1457,
    "startled": 2578,
    "init": 713,
    "ag": 220,
    "ried": 633,
    "legs": 2713,
    "tless": 2449,
    "xt": 1171,
    "ty": 854,
    "view": 2970,
    "drawers": 3152,
    "kidding": 2845,
    "nic": 1850,
    "use": 191,
    "it\u00d5s": 1203,
    "da": 1082,
    "Hou": 1562,
    "Allen": 2543,
    "inattentive": 3241,
    "Gee": 1558,
    "nch": 1849,
    "nervous": 1337,
    "fash": 1104,
    "difficul": 1446,
    "Christ": 2533,
    "ater": 868,
    "Joe": 759,
    "All": 358,
    "ular": 2541,
    "ice": 249,
    "ace": 353,
    "reli": 2029,
    "Marry": 2734,
    "swoops": 2612,
    "traveling": 2614,
    "extra": 1309,
    "difficulty": 3030,
    "lights": 1419,
    "Rasputin": 3110,
    "tit": 1159,
    "dut": 1722,
    "which": 2163,
    "tle": 280,
    "p": 64,
    "-": 9,
    "irt": 1252,
    "ocean": 3195,
    "ented": 2246,
    "cam": 1073,
    "hopeless": 2757,
    "bowel": 3138,
    "Frankly": 2908,
    "Itali": 2314,
    "many": 930,
    "Ad": 1499,
    "nger": 1857,
    "Op": 1604,
    "far": 1097,
    "clu": 647,
    "hole": 2458,
    "gly": 1766,
    "wish": 1965,
    "pen": 695,
    "light": 900,
    "estef": 2587,
    "ping": 1142,
    "moved": 2287,
    "now": 137,
    "hea": 890,
    "Arabia": 2899,
    "Angela": 3378,
    "vent": 863,
    "ple": 598,
    "frequented": 2829,
    "ambience": 3307,
    "eyed": 2586,
    "agons": 2363,
    "boots": 3139,
    "ts": 370,
    "ever": 318,
    "suicide": 2331,
    ",": 8,
    "Christmas": 3346,
    "Bakersfield": 3046,
    "Paper": 1616,
    "sign": 1911,
    "amond": 2259,
    "publish": 3375,
    "smu": 1907,
    "ievement": 2444,
    "fi": 417,
    "Ned": 1596,
    "uck": 706,
    "Ele": 1545,
    "letting": 3274,
    "The": 229,
    "d": 52,
    "fre": 820,
    "Co": 1018,
    "cch": 1702,
    "aking": 555,
    "Year": 1661,
    "knock": 3173,
    "glad": 2590,
    "ick": 352,
    "Hofstad": 3078,
    "ist": 421,
    "hidden": 1452,
    "midgets": 3180,
    "Exactly": 2731,
    "gums": 2348,
    "Yeah": 190,
    "reaching": 3256,
    "giene": 2483,
    "dy": 670,
    "something": 401,
    "sin": 1894,
    "lost": 2275,
    "cranky": 2603,
    "entrance": 2248,
    "Uh": 442,
    "yucky": 1979,
    "weather": 2189,
    "underwear": 2654,
    "ack": 250,
    "ene": 2075,
    "acro": 2204,
    "res": 531,
    "Is": 657,
    "magellan": 2762,
    "Strahlung": 3403,
    "17": 1486,
    "crotch": 3144,
    "Yes": 409,
    "blan": 1689,
    "treat": 1927,
    "beans": 2145,
    "scientist": 1359,
    "asing": 2127,
    "crampy": 2791,
    "Hop": 1566,
    "Department": 3061,
    "Q": 40,
    "ort": 2106,
    "par": 1868,
    "multiverse": 3343,
    "postmens": 2788,
    "teeny": 2416,
    "risk": 1412,
    "virginity": 3228,
    "play": 955,
    "enjo": 534,
    "huh": 681,
    "talk": 247,
    "sur": 925,
    "ff": 589,
    "inhaler": 3242,
    "board": 2438,
    "ertain": 980,
    "bigger": 2597,
    "beaut": 2140,
    "cramp": 762,
    "Dee": 1536,
    "tempor": 2415,
    "experiment": 952,
    "late": 840,
    "eagle": 2219,
    "Cake": 1518,
    "por": 455,
    "List": 1587,
    "Koothra": 3090,
    "itch": 396,
    "iled": 2573,
    "serious": 1386,
    "dling": 1730,
    "Angel": 2798,
    "ras": 1881,
    "bailed": 2667,
    "jogg": 2555,
    "Barcelona": 3392,
    "without": 915,
    "Our": 1608,
    "con": 236,
    "Pal": 1612,
    "break": 986,
    "ury": 1935,
    "predicament": 3339,
    "increase": 3244,
    "theor": 1192,
    "Miller": 3094,
    "beautiful": 3279,
    "t": 68,
    "ternation": 2396,
    "those": 528,
    "British": 3047,
    "set": 881,
    "lieve": 646,
    "at": 85,
    "vy": 861,
    "Koothrappali": 3400,
    "induce": 2352,
    "Avi": 1501,
    "fulfill": 3160,
    "Al": 654,
    "patch": 1876,
    "Ber": 494,
    "welcome": 2190,
    "our": 199,
    "celebr": 2334,
    "zero": 2972,
    "cameras": 2929,
    "enny": 875,
    "snow": 1156,
    "sevent": 2103,
    "Cheese": 3055,
    "arn": 622,
    "wand": 1955,
    "Whisper": 2254,
    "Delvecch": 2906,
    "movie": 2286,
    "Monica": 3093,
    "Chicken": 3345,
    "once": 617,
    "hin": 1777,
    "Sonny": 3114,
    "care": 812,
    "pothetic": 2448,
    "holidays": 2459,
    "e": 53,
    "girlie": 2503,
    "static": 1200,
    "ask": 537,
    "Baby": 1513,
    "rela": 2034,
    "spell": 1316,
    "Where": 1255,
    "ended": 2365,
    "co": 138,
    "hip": 2403,
    "being": 472,
    "kinda": 2634,
    "accounts": 2989,
    "ignon": 3015,
    "Had": 1565,
    "turn": 640,
    "waiting": 2619,
    "Jack": 1581,
    "Dragons": 2802,
    "hypothetically": 3380,
    "vomiting": 3227,
    "ssi": 936,
    "hauser": 2160,
    "Congratulations": 3393,
    "Em": 1021,
    "agne": 2360,
    ".\"": 406,
    "section": 3270,
    "fa": 588,
    "buy": 2545,
    "ad": 187,
    "ispy": 2089,
    "Were": 1655,
    "squ": 1904,
    "cornucopia": 3379,
    "dth": 1718,
    "ein": 1735,
    "A": 24,
    "from": 300,
    "cent": 811,
    "Stick": 2739,
    "bee": 2135,
    "rese": 1188,
    "Mon": 1589,
    "wo": 306,
    "nose": 2110,
    "erating": 2017,
    "colon": 2216,
    "work": 481,
    "Sy": 1625,
    "Ge": 1024,
    "sense": 983,
    "electron": 2680,
    "Happening": 2659,
    "ontane": 2021,
    "owe": 2165,
    "ms": 689,
    "dressed": 2940,
    "understand": 985,
    "sons": 2595,
    "kingdom": 2760,
    "boo": 1683,
    "dur": 1726,
    "aboard": 2232,
    "fiction": 2755,
    "tentive": 3222,
    "vom": 1947,
    "ii": 1784,
    "Narn": 1599,
    "Rederivation": 3385,
    "dared": 2938,
    "dement": 2315,
    "reestablishment": 3258,
    "killed": 3175,
    "rain": 2407,
    "mild": 1841,
    "Provided": 3105,
    "Penny": 1046,
    "flattery": 3365,
    "rather": 2409,
    "ek": 508,
    "Quantentheor": 3108,
    "omic": 2692,
    "nu": 1845,
    "broom": 1691,
    "include": 2973,
    "ten": 704,
    "found": 1102,
    "garage": 2837,
    "but": 224,
    "\u00d5s": 527,
    "Janice": 651,
    "second": 1008,
    "came": 735,
    "dr": 815,
    "willing": 2531,
    "Spanish": 2805,
    "gg": 1763,
    "pay": 1869,
    "place": 1311,
    "surprised": 2878,
    "cost": 1240,
    "ying": 1173,
    "less": 2120,
    "ench": 2077,
    "nipple": 1456,
    "lfriend": 552,
    "inep": 1997,
    "ing": 89,
    "fie": 1100,
    "reet": 872,
    "\".": 1012,
    "wall": 1956,
    "ity": 876,
    "old": 514,
    "liars": 2873,
    "superstition": 3369,
    "disappear": 3362,
    "surgery": 2876,
    "saggy": 3209,
    "relax": 3255,
    "ower": 1229,
    "opinion": 2340,
    "roniz": 2639,
    "ch": 120,
    "single": 2769,
    "chasing": 2174,
    "opport": 1277,
    "vel": 2112,
    "pr": 597,
    "fer": 819,
    "quee": 2461,
    "kicking": 2846,
    "toms": 2053,
    "label": 2575,
    "accelerating": 3295,
    "cleansing": 3012,
    "coming": 945,
    "hair": 902,
    "swe": 1154,
    "Dumped": 3062,
    "Cla": 1522,
    "tell": 372,
    "weak": 2186,
    "entertain": 2247,
    "things": 736,
    "pattern": 1879,
    "tw": 1914,
    "Hornswoggle": 3398,
    "vest": 2113,
    "walking": 2862,
    "There": 546,
    "ill": 287,
    "Hey": 436,
    "bottoms": 3002,
    "ven": 290,
    "mentary": 2406,
    "interference": 2866,
    "ma": 841,
    "my": 129,
    "Imagine": 3085,
    "die": 1089,
    "desperate": 2572,
    "throw": 988,
    "BF": 1504,
    "li": 111,
    "Bar": 1509,
    "wine": 1964,
    "9": 19,
    "fantastic": 3165,
    "subject": 2992,
    "relieve": 2036,
    "let": 885,
    "well": 379,
    "contribution": 3324,
    "ce": 197,
    "birth": 1005,
    "activity": 3296,
    "need": 549,
    "relations": 2043,
    "anno": 2007,
    "bank": 1688,
    "Bonnie": 2902,
    "Equations": 3066,
    "spent": 1315,
    "box": 747,
    "because": 309,
    "mimosas": 3191,
    "big": 437,
    "ressing": 2039,
    "Z": 48,
    "inferring": 2004,
    "!?": 1480,
    "ned": 844,
    "Ras": 1623,
    "Exc": 991,
    "room": 520,
    "bar": 1678,
    "dri": 1721,
    "mak": 1832,
    "money": 3181,
    "starts": 2577,
    "iment": 834,
    "costumes": 1467,
    "ebe": 1094,
    "My": 658,
    "perform": 2374,
    "becaues": 3278,
    "surgeon": 2877,
    "bags": 1444,
    "did": 277,
    "couple": 972,
    "awkward": 1378,
    "pressing": 2490,
    "Smart": 1640,
    "lt": 838,
    "Certainly": 1527,
    "brella": 2669,
    "degre": 2317,
    "hood": 1781,
    "Its": 2313,
    "sarcasmoholics": 3035,
    "hey": 891,
    "gard": 1769,
    "bilit": 1292,
    "disap": 2674,
    "mens": 2689,
    "fiddling": 3164,
    "touch": 2854,
    "Lee": 2435,
    "unk": 921,
    "own": 270,
    "track": 2704,
    "rules": 2511,
    "arch": 1208,
    "ain": 410,
    "Here": 1030,
    "testicles": 2996,
    "privile": 2957,
    "moving": 2285,
    "tt": 371,
    "online": 2020,
    "Plus": 2914,
    "gets": 929,
    "these": 532,
    "boiling": 2442,
    "actually": 772,
    "ine": 336,
    "eras": 2014,
    "opportun": 1470,
    "buying": 2549,
    "shirt": 1314,
    "brave": 2814,
    "It": 189,
    "Strahl": 3124,
    "story": 643,
    "threw": 2775,
    "areas": 2267,
    "body": 357,
    "Chocolate": 3052,
    "Lane": 1036,
    "Okay": 275,
    "Phill": 1619,
    "Muppet": 1592,
    "offe": 471,
    "oce": 1862,
    "Tues": 1057,
    "h": 56,
    "Huh": 1568,
    "highway": 2994,
    "lord": 1821,
    "icing": 2179,
    "hours": 1353,
    "pop": 1146,
    "oo": 127,
    "together": 3262,
    "glish": 2591,
    "ucino": 3225,
    "forbod": 2221,
    "bse": 1679,
    "son": 426,
    "admir": 2312,
    "liva": 2157,
    "Ca": 781,
    "lives": 2617,
    "business": 2812,
    "Damone": 3059,
    "leave": 970,
    "Leia": 2436,
    "tombstone": 3263,
    "ey": 415,
    "bi": 260,
    "sy": 600,
    "fused": 1762,
    "best": 1219,
    "tch": 1919,
    "est": 416,
    "tered": 1928,
    "trucks": 1389,
    "ending": 2364,
    "pie": 697,
    "stayed": 2983,
    "bel": 2136,
    "em": 674,
    "ment": 244,
    "cute": 2751,
    "tory": 2049,
    "who": 310,
    "scout": 2523,
    "Fin": 1551,
    "12th": 2796,
    "Raiders": 2737,
    "promis": 1290,
    "univer": 2296,
    "Josephine": 3088,
    "ket": 898,
    "grad": 1351,
    "Crazy": 3051,
    "minor": 2557,
    "structive": 1417,
    "fairly": 3019,
    "va": 1943,
    "tired": 2344,
    "plish": 2485,
    "miss": 1382,
    "totally": 2058,
    "xwell": 1972,
    "sat": 1895,
    "Ste": 1637,
    "cour": 414,
    "fid": 1753,
    "Ex": 656,
    "Bean": 2581,
    "Equ": 1547,
    "Noo": 496,
    "lephone": 2124,
    "womb": 2494,
    "opping": 2339,
    "mone": 1827,
    "regular": 1461,
    "yet": 1977,
    "girl": 556,
    "Really": 649,
    "hid": 1111,
    "hia": 2402,
    "liberarche": 3282,
    "Mrs": 789,
    "lonely": 3178,
    "bution": 2367,
    "bathtub": 3018,
    "Re": 499,
    "looking": 939,
    "elected": 2678,
    "ery": 715,
    "don": 161,
    "Your": 916,
    "question": 1011,
    "just": 147,
    "happening": 2717,
    "unt": 1266,
    "rocked": 2242,
    "Priya": 3104,
    "ough": 393,
    "Emily": 1430,
    "lovely": 2434,
    "bed": 895,
    "Sheldon": 976,
    "bath": 1365,
    "eel": 1095,
    "bone": 1684,
    "friend": 387,
    "eriv": 2018,
    "possi": 947,
    "uce": 1162,
    "cial": 993,
    "suming": 2330,
    "Stuart": 1439,
    "guarant": 2350,
    "eg": 1092,
    "su": 195,
    "ved": 1213,
    "widened": 3293,
    "ese": 1737,
    "She": 441,
    "Not": 543,
    "0": 12,
    "backwards": 3336,
    "cra": 1709,
    "gif": 1109,
    "solution": 1464,
    "heavens": 2871,
    "lldo": 2062,
    "NO": 1593,
    "dom": 2228,
    "Judy": 2911,
    "belong": 2139,
    "tiles": 2345,
    "didn": 553,
    "chlor": 2172,
    "convinced": 3328,
    "nothing": 624,
    "while": 727,
    "mimo": 1844,
    "hanging": 2844,
    "au": 1663,
    "Electromagnetism": 3396,
    "town": 2055,
    "hypothetic": 2840,
    "earring": 1317,
    "wont": 2615,
    "cousin": 1445,
    "vered": 1950,
    "Hofstadter": 3397,
    "teach": 1929,
    "ld": 123,
    "inv": 613,
    "junk": 1798,
    "mention": 2405,
    "One": 1606,
    "Took": 1645,
    "struggl": 2868,
    "Churo": 2534,
    "iv": 1785,
    "entire": 1254,
    "six": 1910,
    "died": 1366,
    "than": 610,
    "wearing": 1346,
    "Lea": 1585,
    "vi": 707,
    "herself": 2325,
    "towels": 3261,
    "where": 539,
    "boyfriend": 2882,
    "Carrey": 2801,
    "anxiety": 2012,
    "\u00d5t": 1177,
    "study": 1323,
    "instrument": 2710,
    "gay": 1765,
    "H": 31,
    "apparent": 3135,
    "ggl": 1110,
    "lead": 2119,
    "neck": 2303,
    "days": 1320,
    "spelling": 3005,
    "ws": 1952,
    "aged": 2358,
    "stands": 2648,
    "should": 404,
    "U": 44,
    "cid": 1072,
    "seminar": 3269,
    "same": 932,
    "L": 35,
    "five": 761,
    "osa": 1863,
    "sci": 559,
    "We": 284,
    "..": 210,
    "syrup": 1370,
    "publ": 2763,
    "Grisham": 3076,
    "answer": 2011,
    "Me": 1039,
    "peer": 2421,
    "toile": 1194,
    "wes": 1957,
    "months": 978,
    "relationship": 3259,
    "ase": 1664,
    "baby": 1696,
    "Renaissance": 3402,
    "host": 2457,
    "Chloe": 2536,
    "class": 2599,
    "steady": 3266,
    "Van": 1650,
    "Soviet": 3340,
    "aby": 1249,
    "world": 744,
    "cl": 443,
    "letter": 1216,
    "ow": 119,
    "bo": 276,
    "ia": 450,
    "shopping": 2513,
    "bus": 804,
    "ul": 348,
    "Just": 573,
    "Dorothy": 3395,
    "ate": 282,
    "Jan": 572,
    "Power": 1618,
    "mix": 1842,
    "twice": 3218,
    "Nuys": 3095,
    "sh": 324,
    "for": 140,
    "lone": 1813,
    "makeup": 2505,
    "Whe": 1654,
    "fla": 1103,
    "few": 738,
    "bulldo": 2550,
    "minut": 484,
    "ge": 285,
    "decent": 2318,
    "wady": 3235,
    "artment": 2354,
    "Gal": 1556,
    "never": 479,
    "across": 3294,
    "exactly": 2479,
    "ofess": 2130,
    "spring": 2514,
    "strangers": 2981,
    "eah": 173,
    "aver": 1064,
    "bal": 802,
    "ider": 2225,
    "quest": 951,
    "ound": 291,
    "AS": 1497,
    "ha": 113,
    "decency": 3318,
    "wart": 1963,
    "AN": 1496,
    "ambi": 2257,
    "ise": 2083,
    "iously": 763,
    "ent": 151,
    "morr": 1455,
    "married": 995,
    "learned": 2985,
    "done": 2263,
    "towe": 2048,
    "given": 953,
    "cutie": 2752,
    "saliva": 2380,
    "erst": 2013,
    "fix": 2588,
    "screwups": 3344,
    "King": 1583,
    "recognize": 3407,
    "hangs": 2843,
    "some": 209,
    "fon": 1748,
    "commercial": 1422,
    "Placement": 2915,
    "red": 530,
    "quarter": 2463,
    "dding": 1728,
    "taste": 2859,
    "hurtling": 2842,
    "Ahh": 2656,
    "carving": 2583,
    "alway": 475,
    "rack": 1887,
    "mighty": 2558,
    "again": 742,
    "urs": 2464,
    "bot": 1302,
    "technically": 3333,
    "wed": 1958,
    "SyFy": 3112,
    "wup": 1959,
    "God": 784,
    "Noooo": 2621,
    "&": 4,
    "tshirt": 1930,
    "boring": 3137,
    "blunt": 2810,
    "aiss": 1673,
    "Mom": 788,
    "Cwaigswist": 3394,
    "otic": 1865,
    "cous": 1077,
    "crying": 1711,
    "Web": 2453,
    "do": 143,
    "cle": 503,
    "ces": 1700,
    "ph": 846,
    "what": 207,
    "ID": 1574,
    "dra": 1724,
    "smokes": 2852,
    "plate": 2484,
    "Lake": 1586,
    "sending": 2967,
    "wants": 934,
    "vement": 1214,
    "Once": 2624,
    "iety": 1796,
    "sored": 2195,
    "sity": 2562,
    "las": 839,
    "anyway": 1296,
    "soon": 2193,
    "nes": 1848,
    "cover": 2212,
    "zen": 1984,
    "uncensored": 3310,
    "laser": 1410,
    "te": 246,
    "walkie": 2863,
    "bs": 799,
    "tic": 856,
    "Hold": 1570,
    "showing": 2703,
    "po": 279,
    "character": 1393,
    "hemorr": 2134,
    "know": 170,
    "mad": 692,
    "seen": 1209,
    "Chicago": 2535,
    "thing": 192,
    "DC": 1528,
    "Morning": 1040,
    "plenty": 2487,
    "meantime": 2870,
    "chnic": 2173,
    "Cwaigswi": 3053,
    "beaver": 2141,
    "wrestling": 3230,
    "contest": 1471,
    "ani": 1183,
    "corn": 813,
    "report": 2037,
    "first": 564,
    "Sadly": 3120,
    "ably": 541,
    "role": 2240,
    "iness": 1998,
    "gn": 824,
    "b": 50,
    "icide": 2182,
    "ir": 146,
    "ather": 1666,
    "?\"": 1014,
    "portive": 2609,
    "Mar": 659,
    "Blanche": 771,
    "reme": 2028,
    "No": 148,
    "side": 603,
    "urdays": 2465,
    "woman": 644,
    "bonus": 3136,
    "Dor": 1530,
    "fight": 1099,
    "levels": 2126,
    "ssion": 2426,
    "spider": 2517,
    "used": 922,
    "before": 896,
    "focus": 1340,
    "Oh": 141,
    "may": 391,
    "sto": 304,
    "bod": 331,
    "very": 434,
    "brand": 2744,
    "picture": 2793,
    "this": 167,
    "hee": 719,
    "leg": 625,
    "desert": 966,
    "rhythm": 3203,
    "jon": 1797,
    "offee": 491,
    "Grant": 3071,
    "monster": 2607,
    "ed": 124,
    "real": 871,
    "guess": 739,
    "trip": 1357,
    "gery": 1773,
    "pictures": 1000,
    "r": 66,
    "still": 467,
    "igswi": 2633,
    "Advanced": 3039,
    "Pheebs": 1001,
    "theore": 2047,
    "nightclu": 2540,
    "Ross": 650,
    "acement": 2542,
    "would": 248,
    "Hof": 1563,
    "adventure": 3313,
    "120": 2795,
    "1917": 3037,
    "biology": 1472,
    "equal": 3157,
    "lesson": 3273,
    "evid": 1744,
    "hemorrhoids": 3277,
    "?": 23,
    "ation": 375,
    "Giselle": 3072,
    "29": 1491,
    "isper": 2088,
    "good": 242,
    "love": 272,
    "kitch": 1120,
    "<": 21,
    "dash": 1727,
    "acter": 1236,
    "He": 251,
    "5": 17,
    "protected": 2425,
    "age": 741,
    "cheek": 2475,
    "hrine": 3168,
    "asy": 1218,
    "ctu": 1076,
    "not": 178,
    "Anyway": 2900,
    "ring": 425,
    "ook": 212,
    "accidentally": 3032,
    "Bernadette": 567,
    "sarcasmoholic": 1477,
    "pro": 255,
    "Justice": 2660,
    "Resuda": 3111,
    "tro": 1921,
    "fant": 1755,
    "bother": 2439,
    "craftsman": 3405,
    "naming": 3194,
    "Somebody": 2886,
    "forkli": 2223,
    "famous": 2830,
    "such": 926,
    "ankly": 2469,
    "menorah": 2691,
    "If": 495,
    "drop": 2936,
    "le": 102,
    "Darn": 1537,
    "hill": 1286,
    "mist": 1837,
    "shower": 2702,
    "Sto": 1628,
    "seven": 1210,
    "established": 3390,
    "entist": 914,
    "spending": 2518,
    "ign": 1354,
    "wre": 1954,
    "bage": 1694,
    "asked": 888,
    "bur": 808,
    "lease": 969,
    "Caesar": 2800,
    "lti": 1814,
    "mid": 1825,
    "Answering": 3377,
    "penises": 2892,
    "dismantle": 3363,
    "annoying": 3247,
    "theory": 2977,
    "alone": 905,
    "ucin": 1941,
    "pregn": 1312,
    "twe": 1920,
    "raise": 2410,
    "through": 1372,
    "ward": 606,
    "hurry": 1408,
    "Sop": 1635,
    "much": 383,
    "ily": 685,
    "pin": 1141,
    "toilets": 2979,
    "Hornswo": 3080,
    "pear": 2422,
    "Trib": 1058,
    "mou": 1128,
    "lane": 1336,
    "between": 3280,
    "ya": 1172,
    "forboded": 3301,
    "Gell": 1557,
    "accid": 1238,
    "cha": 1071,
    "delivery": 2323,
    "greetings": 2502,
    "over": 515,
    "auts": 2922,
    "depres": 1274,
    "aut": 1063,
    "zill": 1987,
    "losing": 2278,
    "!\"": 1479,
    "How": 384,
    "ical": 730,
    "gry": 1767,
    "leen": 2118,
    "Hell": 1031,
    "gun": 1768,
    "talkie": 2419,
    "complementary": 3001,
    "right": 208,
    "including": 2974,
    "Jews": 2803,
    "chick": 1230,
    "gniz": 2836,
    "clicked": 3146,
    "points": 2786,
    "el": 237,
    "Iverson": 3084,
    "created": 2748,
    "car": 413,
    "comp": 944,
    "grey": 2500,
    "actu": 634,
    "doooo": 3148,
    "ghtly": 1232,
    "figu": 1334,
    "game": 562,
    "birthday": 1429,
    "become": 1221,
    "actual": 2718,
    "Please": 1617,
    "Ma": 1038,
    "Qu": 1621,
    "hook": 1780,
    "chlorine": 3288,
    "Sovi": 2497,
    "rna": 1883,
    "that\u00d5s": 1224,
    "aw": 663,
    "invent": 2707,
    "achievement": 2628,
    "say": 305,
    "Fir": 1553,
    "he": 105,
    "fall": 1098,
    "lem": 536,
    "im": 683,
    "shampoo": 3216,
    "ser": 701,
    "waff": 2565,
    "carouse": 2584,
    "atching": 968,
    "called": 977,
    "descent": 2571,
    "eping": 2498,
    "comes": 2496,
    "tane": 1925,
    "gi": 301,
    "mom": 919,
    "er": 83,
    "nel": 2301,
    "zing": 1176,
    "laundry": 1474,
    "constructive": 2389,
    "peeking": 3334,
    "accou": 1237,
    "limbic": 3283,
    "ta": 1158,
    "Claws": 3054,
    "busy": 2811,
    "meaning": 2427,
    "ager": 2356,
    "mocking": 3309,
    "ig": 511,
    "cac": 1703,
    "sliced": 2642,
    "stable": 2069,
    "perhaps": 2373,
    "Cha": 1517,
    "Israel": 2732,
    "goofin": 2147,
    "accomplish": 3297,
    "lary": 1818,
    "supp": 987,
    "lose": 2276,
    "professional": 3367,
    "iders": 2226,
    "tr": 604,
    "starting": 757,
    "giving": 1310,
    "inal": 1180,
    "change": 2171,
    "book": 665,
    "reestabl": 2040,
    ">\"": 1495,
    "Lobster": 2663,
    "nesses": 3193,
    "orig": 1212,
    "verse": 2261,
    "pick": 698,
    "kir": 1805,
    "isn": 1204,
    "sed": 535,
    "Sauvignon": 3386,
    "future": 3163,
    "wus": 1960,
    "Say": 1629,
    "coca": 1241,
    "invite": 2708,
    "G": 30,
    "comments": 2433,
    "area": 2265,
    "glaring": 2592,
    "7": 18,
    "dance": 1091,
    "ally": 184,
    "ay": 112,
    "periment": 931,
    "dusty": 3151,
    "ised": 2087,
    "list": 724,
    "off": 293,
    "nd": 149,
    "seventeen": 3272,
    "atic": 1187,
    "ated": 619,
    "tonight": 3220,
    "hour": 510,
    "speled": 3210,
    "morning": 595,
    "true": 2771,
    "myself": 1234,
    "Bak": 1511,
    "ou": 80,
    "Wolowitz": 1003,
    "haps": 2159,
    "ans": 2006,
    "Bono": 2901,
    "steal": 2073,
    "ante": 1262,
    "pride": 2956,
    ":": 20,
    "listen": 2778,
    "reduce": 2647,
    "ho": 286,
    "Tribbiani": 1443,
    "fortunate": 2874,
    "An": 777,
    "attern": 1416,
    "nadet": 545,
    "piece": 2766,
    "train": 2613,
    "kick": 836,
    "ny": 366,
    "ficul": 1381,
    "lidays": 2155,
    "Lost": 2661,
    "two": 525,
    "sound": 703,
    "en": 93,
    "ail": 1669,
    "xim": 1973,
    "billion": 2999,
    "cy": 1697,
    "ments": 1288,
    "please": 1149,
    "social": 2198,
    "J": 33,
    "ead": 910,
    "Abbott": 3038,
    "Hardly": 1573,
    "confused": 2390,
    "na": 162,
    "questions": 2897,
    "guys": 754,
    "able": 478,
    "dirtiest": 2935,
    "ball": 1681,
    "explain": 3338,
    "weeks": 2784,
    "dollars": 3304,
    "hl": 1774,
    "tion": 857,
    "ummet": 2451,
    "ke": 109,
    "bunch": 1401,
    "gorup": 3166,
    "thanks": 1390,
    "As": 778,
    "monkey": 979,
    "nations": 1856,
    "loyalty": 3308,
    "editors": 3290,
    "entheor": 2079,
    "terrific": 2397,
    "foundation": 2945,
    "weave": 2188,
    "When": 544,
    "kids": 1409,
    "read": 873,
    "Tr": 1642,
    "andler": 894,
    "Rederiv": 2916,
    "skirts": 3217,
    "job": 2552,
    "form": 2220,
    "moho": 1264,
    "mother": 1263,
    "feelers": 2720,
    "studied": 2567,
    "seemed": 1284,
    "ishy": 2529,
    "kna": 1806,
    "cli": 1699,
    "duties": 3150,
    "goes": 1223,
    "gonna": 258,
    "sleeping": 3206,
    "Hmm": 1572,
    "pruny": 2697,
    "bulldozer": 3348,
    "cked": 1078,
    "resu": 1189,
    "everyday": 2723,
    "19": 1487,
    "gue": 1279,
    "complicated": 2881,
    "flake": 2685,
    "fu": 1747,
    "burying": 2546,
    "ve": 101,
    "mine": 1833,
    "figured": 3010,
    "dition": 1733,
    "part": 424,
    "fac": 1752,
    "chimps": 3287,
    "ucky": 997,
    "rate": 1888,
    "vated": 1948,
    "yodel": 1981,
    "Dun": 1533,
    "Tur": 1646,
    "pack": 1872,
    "enough": 621,
    "Swe": 1630,
    "save": 1283,
    "Wow": 662,
    "ast": 259,
    "112": 1488,
    "Rose": 330,
    "exciting": 2790,
    "rhy": 1891,
    "Cover": 1525,
    "tomorrow": 3264,
    "blo": 1685,
    "lasagna": 2848,
    "build": 963,
    "probe": 2424,
    "want": 240,
    "whereas": 2649,
    "loved": 1300,
    "Sophia": 3121,
    "cool": 814,
    "girlfriend": 557,
    "tent": 1922,
    "Space": 2804,
    "25": 1490,
    "professor": 2693,
    "quite": 1305,
    "Fraggle": 2907,
    "These": 2370,
    "mouth": 1454,
    "ne": 182,
    "sink": 3204,
    "Del": 1020,
    "whole": 960,
    "Of": 497,
    "years": 766,
    "smugglers": 3215,
    "mock": 2284,
    "despite": 1326,
    "wuss": 3234,
    "away": 1667,
    "ought": 349,
    "st": 92,
    "virg": 1951,
    "finds": 1321,
    "closet": 2930,
    "idio": 2227,
    "van": 862,
    "ci": 666,
    "lad": 1125,
    "itchy": 2579,
    "Well": 200,
    "win": 1953,
    "Ren": 1622,
    "analysis": 3248,
    "pair": 1880,
    "rocks": 2241,
    "English": 3064,
    "Panchali": 3101,
    "cope": 2214,
    "swim": 2965,
    "ppening": 2653,
    "Raj": 992,
    "thes": 2045,
    "sho": 1902,
    "exotic": 2480,
    "uny": 2293,
    "Today": 1441,
    "R": 41,
    "loe": 2274,
    "visit": 3226,
    "cow": 1701,
    "Sco": 1631,
    "brain": 1402,
    "picked": 2638,
    "aths": 1671,
    "up": 166,
    "gen": 1108,
    "chocolate": 2781,
    "Crash": 3048,
    "dle": 1084,
    "pare": 1145,
    "problem": 560,
    "yesterday": 3239,
    "Cr": 1515,
    "uts": 2200,
    "Since": 3113,
    "men": 594,
    "ab": 144,
    "op": 203,
    "develo": 2322,
    "uncen": 2295,
    "14th": 3036,
    "ord": 884,
    "initiating": 2894,
    "Phee": 791,
    "bott": 2440,
    "ep": 317,
    "Would": 1657,
    "present": 2885,
    "upset": 1260,
    "reach": 2035,
    "scott": 3207,
    "Delhi": 2905,
    "gilante": 2482,
    "becomes": 2986,
    "string": 2068,
    "Amazing": 3040,
    "weaknesses": 3291,
    "couldn": 2477,
    "drive": 3149,
    "really": 267,
    "why": 351,
    "At": 1500,
    "Maybe": 489,
    "oard": 1861,
    "Collect": 2904,
    "ctromagnet": 2570,
    "ure": 605,
    "sweater": 2964,
    "resolution": 2042,
    "left": 886,
    "band": 801,
    "coffee": 504,
    "unti": 1267,
    "destructive": 2320,
    "hu": 1776,
    "doing": 913,
    "Blanc": 2657,
    "cro": 1705,
    "eyes": 1332,
    "bosses": 2443,
    "gloria": 2593,
    "arly": 2093,
    "an": 82,
    "Jamestown": 3399,
    "aunt": 1674,
    "head": 893,
    "2": 14,
    "Ch": 343,
    "establishe": 3008,
    "Nothing": 2236,
    "balcony": 1004,
    "Occam": 3099,
    "iate": 1118,
    "estefan": 3353,
    "llar": 2061,
    "Oc": 1602,
    "dres": 1090,
    "GER": 1561,
    "incre": 2000,
    "Dump": 1540,
    "ham": 725,
    "amus": 2256,
    "expl": 2478,
    "app": 1668,
    "taking": 1160,
    "rab": 1882,
    "bre": 579,
    "mildly": 3189,
    "every": 645,
    "Alright": 2728,
    "steel": 2072,
    "getting": 550,
    "screwup": 2526,
    "ople": 480,
    "'": 5,
    "tried": 2645,
    "mpor": 1838,
    "girls": 1358,
    "licated": 2777,
    "Ob": 1042,
    "str": 1195,
    "Have": 1361,
    "musical": 3182,
    "inch": 1994,
    "testicle": 2995,
    "blanket": 3142,
    "New": 1041,
    "Barcelon": 3045,
    "Dear": 1535,
    "Ama": 1502,
    "marquee": 2761,
    "rub": 1313,
    "comm": 943,
    "Assuming": 2799,
    "rey": 2027,
    "sen": 521,
    "subconsc": 2993,
    "Almost": 2729,
    "pal": 1870,
    "mil": 1834,
    "takes": 1329,
    "knows": 2273,
    "shamp": 1912,
    "user": 1265,
    "name": 1257,
    "ius": 1792,
    "finish": 2827,
    "Dictionary": 3058,
    "y": 73,
    "fire": 2589,
    "waffles": 3351,
    "Hulk": 3081,
    "wh": 117,
    "ating": 618,
    "liber": 2152,
    "ach": 502,
    "Battlestar": 3044,
    "privilege": 3388,
    "saw": 2376,
    "lines": 3176,
    "Love": 1362,
    "fly": 1754,
    "mean": 257,
    "actly": 1339,
    "thru": 1991,
    "bu": 359,
    "excited": 1395,
    "k": 59,
    "fore": 648,
    "hand": 449,
    "perate": 2371,
    "lea": 397,
    "flush": 2687,
    "icill": 2180,
    "deep": 2316,
    "synchronized": 3368,
    "mayor": 2576,
    "rose": 2239,
    "ish": 337,
    "fic": 676,
    "house": 682,
    "sets": 2100,
    "freaking": 1407,
    "Amy": 780,
    "makes": 2504,
    "Pho": 1045,
    "dollar": 2230,
    "night": 346,
    "orah": 2109,
    "ite": 430,
    "astron": 2429,
    "sle": 1896,
    "after": 2921,
    "contro": 2391,
    "your": 165,
    "Seriously": 1438,
    "erday": 2016,
    "contri": 2386,
    "dudes": 2932,
    "fighting": 2943,
    "though": 1178,
    "next": 1271,
    "F": 29,
    "yes": 607,
    "vid": 1164,
    "dozen": 2229,
    "rance": 1890,
    "DAN": 1541,
    "table": 859,
    "char": 729,
    "Princess": 1364,
    "coast": 2215,
    "obsession": 3196,
    "mo": 175,
    "breaths": 2668,
    "hus": 830,
    "viously": 1167,
    "relieved": 3257,
    "only": 529,
    "overlord": 2636,
    "scared": 2527,
    "lifeguards": 3371,
    "Excuse": 1428,
    "versation": 2262,
    "commercials": 3027,
    "clean": 1348,
    "stuff": 756,
    "outside": 2175,
    "Bay": 1510,
    "unusually": 2298,
    "pee": 935,
    "everyone": 1377,
    "lett": 2121,
    "s": 67,
    "fashioned": 3031,
    "drank": 1405,
    "Wiki": 3131,
    "gled": 2756,
    "waii": 2566,
    "So": 315,
    "title": 2968,
    "thr": 608,
    "genre": 2947,
    "furnit": 2944,
    "Blan": 570,
    "vert": 2260,
    "Phillis": 3107,
    "Superman": 3119,
    "chosen": 2780,
    "ro": 150,
    "number": 1137,
    "m": 61,
    "ament": 2255,
    "genius": 2948,
    "j": 58,
    "season": 2104,
    "Stu": 1052,
    "or": 99,
    "'.": 1013,
    "somebody": 1278,
    "rabies": 3201,
    "Goth": 2909,
    "Eve": 1544,
    "lucky": 1822,
    "conte": 1285,
    "ver": 159,
    "kes": 2148,
    "pl": 302,
    "uate": 1937,
    "familiar": 2832,
    "ung": 2292,
    "attitude": 3249,
    "Let": 1035,
    "ids": 2224,
    "atternut": 3026,
    "infection": 3246,
    "load": 2277,
    "Because": 487,
    "meant": 880,
    "kid": 835,
    "day": 360,
    "hoids": 2460,
    "flossing": 2834,
    "Why": 354,
    "faith": 2684,
    "der": 506,
    "Doesn": 2889,
    "immediately": 3374,
    "mes": 1206,
    "\u20ac": 77,
    "sure": 381,
    "ect": 1096,
    "limb": 2154,
    "pins": 2955,
    "lo": 171,
    "vels": 2116,
    "take": 392,
    "accomm": 2208,
    "discreetly": 3361,
    "don\u00d5t": 1256,
    "behind": 897,
    "so": 131,
    "(": 6,
    "named": 1258,
    "lations": 1819,
    "cou": 412,
    "Actually": 3041,
    "Bon": 1017,
    "gge": 828,
    "fondest": 3161,
    "crush": 2601,
    "wet": 2184,
    "opportunities": 3034,
    "n": 62,
    "most": 548,
    "she": 204,
    "ime": 1789,
    "guitar": 2349,
    "ysis": 1980,
    "ious": 451,
    "trying": 526,
    "happens": 1375,
    "thin": 206,
    "about": 188,
    "ic": 126,
    "uppet": 1261,
    "gave": 1322,
    "uv": 1931,
    "Dam": 1532,
    "hear": 628,
    "Ju": 1032,
    "meat": 1207,
    "lihood": 2156,
    "Ooh": 790,
    "consc": 2385,
    "fo": 447,
    "saving": 2379,
    "positive": 2446,
    "bright": 1686,
    "enchiladas": 3267,
    "hell": 2132,
    "ner": 423,
    "lante": 1823,
    "sail": 2378,
    "fri": 1750,
    "Squatternut": 3123,
    "that": 110,
    "lifeguard": 2716,
    "inter": 866,
    "bon": 1675,
    "ert": 464,
    "ie": 278,
    "Sound": 1053,
    "Sup": 1633,
    "capo": 2299,
    "moments": 2785,
    "champ": 1716,
    "Pr": 575,
    "ellent": 2251,
    ",\"": 775,
    "asses": 2128,
    "olo": 1140,
    "Albert": 2730,
    "cepts": 2333,
    "fron": 1105,
    "audition": 3134,
    "kward": 1121,
    "biani": 1294,
    "floor": 2833,
    "gazar": 2551,
    "burst": 2815,
    "justice": 2235,
    "anish": 2010,
    "field": 1448,
    "sweet": 2963,
    "Rac": 792,
    "clothes": 2931,
    "nie": 1852,
    "ersfield": 2616,
    "jo": 363,
    "ladies": 2952,
    "Joh": 1582,
    "apart": 1065,
    "mistake": 3187,
    "tequila": 3330,
    "biolo": 1293,
    "Lords": 2912,
    "mber": 1840,
    "swo": 1905,
    "attit": 2025,
    "gir": 320,
    "approxim": 3024
  },
  "meta": {
    "pad_token": "<pad>",
    "unk_token": "<unk>",
    "pad_id": 0,
    "unk_id": 1,
    "vocab_size": 3408,
    "max_seq_len": 64,
    "seed": 440,
    "train_frac": 0.8,
    "val_frac": 0.1,
    "json_path": "data\\mustard_raw\\sarcasm_data.json",
    "npz_path": "data\\mustard_processed\\mustard_logmel.npz",
    "tokenizer_path": "data\\mustard_processed\\tokenizer.json"
  }
}